{
  "version": "1.0",
  "truncation": null,
  "padding": null,
  "added_tokens": [
    {
      "id": 0,
      "content": "[UNK]",
      "single_word": false,
      "lstrip": false,
      "rstrip": false,
      "normalized": false,
      "special": true
    },
    {
      "id": 1,
      "content": "[MASK]",
      "single_word": false,
      "lstrip": false,
      "rstrip": false,
      "normalized": false,
      "special": true
    },
    {
      "id": 2,
      "content": "[CLS]",
      "single_word": false,
      "lstrip": false,
      "rstrip": false,
      "normalized": false,
      "special": true
    },
    {
      "id": 3,
      "content": "[PAD]",
      "single_word": false,
      "lstrip": false,
      "rstrip": false,
      "normalized": false,
      "special": true
    },
    {
      "id": 4,
      "content": "[RVD]",
      "single_word": false,
      "lstrip": false,
      "rstrip": false,
      "normalized": false,
      "special": true
    }
  ],
  "normalizer": null,
  "pre_tokenizer": {
    "type": "Whitespace"
  },
  "post_processor": null,
  "decoder": null,
  "model": {
    "type": "BPE",
    "dropout": null,
    "unk_token": "[UNK]",
    "continuing_subword_prefix": null,
    "end_of_word_suffix": null,
    "fuse_unk": false,
    "byte_fallback": false,
    "vocab": {
      "[UNK]": 0,
      "[MASK]": 1,
      "[CLS]": 2,
      "[PAD]": 3,
      "[RVD]": 4,
      "!": 5,
      "\"": 6,
      "#": 7,
      "$": 8,
      "%": 9,
      "&": 10,
      "'": 11,
      "(": 12,
      ")": 13,
      "*": 14,
      "+": 15,
      ",": 16,
      "-": 17,
      ".": 18,
      "/": 19,
      "0": 20,
      "1": 21,
      "2": 22,
      "3": 23,
      "4": 24,
      "5": 25,
      "6": 26,
      "7": 27,
      "8": 28,
      "9": 29,
      ":": 30,
      ";": 31,
      "<": 32,
      "=": 33,
      ">": 34,
      "?": 35,
      "@": 36,
      "A": 37,
      "B": 38,
      "C": 39,
      "D": 40,
      "E": 41,
      "F": 42,
      "G": 43,
      "H": 44,
      "I": 45,
      "J": 46,
      "K": 47,
      "L": 48,
      "M": 49,
      "N": 50,
      "O": 51,
      "P": 52,
      "Q": 53,
      "R": 54,
      "S": 55,
      "T": 56,
      "U": 57,
      "V": 58,
      "W": 59,
      "X": 60,
      "Y": 61,
      "Z": 62,
      "[": 63,
      "\\": 64,
      "]": 65,
      "^": 66,
      "_": 67,
      "`": 68,
      "a": 69,
      "b": 70,
      "c": 71,
      "d": 72,
      "e": 73,
      "f": 74,
      "g": 75,
      "h": 76,
      "i": 77,
      "j": 78,
      "k": 79,
      "l": 80,
      "m": 81,
      "n": 82,
      "o": 83,
      "p": 84,
      "q": 85,
      "r": 86,
      "s": 87,
      "t": 88,
      "u": 89,
      "v": 90,
      "w": 91,
      "x": 92,
      "y": 93,
      "z": 94,
      "{": 95,
      "|": 96,
      "}": 97,
      "~": 98,
      "": 99,
      "": 100,
      "": 101,
      "": 102,
      "": 103,
      "": 104,
      "": 105,
      "": 106,
      "": 107,
      "": 108,
      "": 109,
      "¡": 110,
      "¢": 111,
      "£": 112,
      "¤": 113,
      "¥": 114,
      "¦": 115,
      "§": 116,
      "¨": 117,
      "©": 118,
      "ª": 119,
      "«": 120,
      "¬": 121,
      "­": 122,
      "®": 123,
      "¯": 124,
      "°": 125,
      "±": 126,
      "²": 127,
      "³": 128,
      "´": 129,
      "µ": 130,
      "¶": 131,
      "·": 132,
      "¸": 133,
      "¹": 134,
      "º": 135,
      "»": 136,
      "¼": 137,
      "½": 138,
      "¾": 139,
      "¿": 140,
      "À": 141,
      "Á": 142,
      "Â": 143,
      "Ã": 144,
      "Ä": 145,
      "Å": 146,
      "Æ": 147,
      "Ç": 148,
      "È": 149,
      "É": 150,
      "Ê": 151,
      "Í": 152,
      "Î": 153,
      "Ð": 154,
      "Ñ": 155,
      "Ó": 156,
      "Ô": 157,
      "Ö": 158,
      "×": 159,
      "Ø": 160,
      "Ú": 161,
      "Ü": 162,
      "Þ": 163,
      "ß": 164,
      "à": 165,
      "á": 166,
      "â": 167,
      "ã": 168,
      "ä": 169,
      "å": 170,
      "æ": 171,
      "ç": 172,
      "è": 173,
      "é": 174,
      "ê": 175,
      "ë": 176,
      "ì": 177,
      "í": 178,
      "î": 179,
      "ï": 180,
      "ð": 181,
      "ñ": 182,
      "ò": 183,
      "ó": 184,
      "ô": 185,
      "õ": 186,
      "ö": 187,
      "÷": 188,
      "ø": 189,
      "ù": 190,
      "ú": 191,
      "û": 192,
      "ü": 193,
      "ý": 194,
      "þ": 195,
      "Ā": 196,
      "ā": 197,
      "ă": 198,
      "ą": 199,
      "ć": 200,
      "Č": 201,
      "č": 202,
      "Đ": 203,
      "đ": 204,
      "ē": 205,
      "ė": 206,
      "ę": 207,
      "ě": 208,
      "Ĝ": 209,
      "ğ": 210,
      "ī": 211,
      "İ": 212,
      "ı": 213,
      "Ł": 214,
      "ł": 215,
      "ń": 216,
      "ŋ": 217,
      "Ō": 218,
      "ō": 219,
      "ŏ": 220,
      "ő": 221,
      "œ": 222,
      "ř": 223,
      "Ś": 224,
      "ś": 225,
      "Ş": 226,
      "ş": 227,
      "Š": 228,
      "š": 229,
      "ţ": 230,
      "ū": 231,
      "ů": 232,
      "ż": 233,
      "Ž": 234,
      "ž": 235,
      "ǎ": 236,
      "ǐ": 237,
      "ǒ": 238,
      "ș": 239,
      "ț": 240,
      "ɐ": 241,
      "ɑ": 242,
      "ɔ": 243,
      "ə": 244,
      "ɛ": 245,
      "ɡ": 246,
      "ɪ": 247,
      "ʃ": 248,
      "ʊ": 249,
      "ʔ": 250,
      "ʖ": 251,
      "ʰ": 252,
      "ʲ": 253,
      "ʹ": 254,
      "ʻ": 255,
      "ʼ": 256,
      "ʾ": 257,
      "ʿ": 258,
      "ˈ": 259,
      "ː": 260,
      "˚": 261,
      "˜": 262,
      "́": 263,
      "̃": 264,
      "̄": 265,
      "̯": 266,
      "̶": 267,
      "͜": 268,
      "͡": 269,
      "Α": 270,
      "Γ": 271,
      "Δ": 272,
      "Ε": 273,
      "Ι": 274,
      "Λ": 275,
      "Π": 276,
      "Σ": 277,
      "Φ": 278,
      "Ω": 279,
      "ά": 280,
      "έ": 281,
      "ή": 282,
      "ί": 283,
      "α": 284,
      "β": 285,
      "γ": 286,
      "δ": 287,
      "ε": 288,
      "ζ": 289,
      "η": 290,
      "θ": 291,
      "ι": 292,
      "κ": 293,
      "λ": 294,
      "μ": 295,
      "ν": 296,
      "ξ": 297,
      "ο": 298,
      "π": 299,
      "ρ": 300,
      "ς": 301,
      "σ": 302,
      "τ": 303,
      "υ": 304,
      "φ": 305,
      "χ": 306,
      "ψ": 307,
      "ω": 308,
      "ό": 309,
      "ύ": 310,
      "ώ": 311,
      "ϕ": 312,
      "А": 313,
      "Б": 314,
      "В": 315,
      "Г": 316,
      "Д": 317,
      "Е": 318,
      "З": 319,
      "И": 320,
      "К": 321,
      "Л": 322,
      "М": 323,
      "Н": 324,
      "О": 325,
      "П": 326,
      "Р": 327,
      "С": 328,
      "Т": 329,
      "У": 330,
      "Ф": 331,
      "Х": 332,
      "Ч": 333,
      "Э": 334,
      "Я": 335,
      "а": 336,
      "б": 337,
      "в": 338,
      "г": 339,
      "д": 340,
      "е": 341,
      "ж": 342,
      "з": 343,
      "и": 344,
      "й": 345,
      "к": 346,
      "л": 347,
      "м": 348,
      "н": 349,
      "о": 350,
      "п": 351,
      "р": 352,
      "с": 353,
      "т": 354,
      "у": 355,
      "ф": 356,
      "х": 357,
      "ц": 358,
      "ч": 359,
      "ш": 360,
      "щ": 361,
      "ъ": 362,
      "ы": 363,
      "ь": 364,
      "э": 365,
      "ю": 366,
      "я": 367,
      "ё": 368,
      "ѕ": 369,
      "і": 370,
      "ա": 371,
      "ե": 372,
      "թ": 373,
      "ի": 374,
      "կ": 375,
      "հ": 376,
      "մ": 377,
      "յ": 378,
      "ն": 379,
      "ո": 380,
      "ս": 381,
      "վ": 382,
      "տ": 383,
      "ր": 384,
      "ւ": 385,
      "ָ": 386,
      "ּ": 387,
      "א": 388,
      "ב": 389,
      "ג": 390,
      "ד": 391,
      "ה": 392,
      "ו": 393,
      "ז": 394,
      "ח": 395,
      "ט": 396,
      "י": 397,
      "כ": 398,
      "ל": 399,
      "ם": 400,
      "מ": 401,
      "ן": 402,
      "נ": 403,
      "ס": 404,
      "ע": 405,
      "פ": 406,
      "צ": 407,
      "ק": 408,
      "ר": 409,
      "ש": 410,
      "ת": 411,
      "،": 412,
      "ء": 413,
      "آ": 414,
      "أ": 415,
      "إ": 416,
      "ئ": 417,
      "ا": 418,
      "ب": 419,
      "ة": 420,
      "ت": 421,
      "ث": 422,
      "ج": 423,
      "ح": 424,
      "خ": 425,
      "د": 426,
      "ذ": 427,
      "ر": 428,
      "ز": 429,
      "س": 430,
      "ش": 431,
      "ص": 432,
      "ض": 433,
      "ط": 434,
      "ظ": 435,
      "ع": 436,
      "غ": 437,
      "ـ": 438,
      "ف": 439,
      "ق": 440,
      "ك": 441,
      "ل": 442,
      "م": 443,
      "ن": 444,
      "ه": 445,
      "و": 446,
      "ى": 447,
      "ي": 448,
      "ً": 449,
      "َ": 450,
      "ُ": 451,
      "ِ": 452,
      "ّ": 453,
      "ْ": 454,
      "ک": 455,
      "ی": 456,
      "ं": 457,
      "क": 458,
      "ग": 459,
      "ज": 460,
      "त": 461,
      "द": 462,
      "न": 463,
      "प": 464,
      "ब": 465,
      "म": 466,
      "य": 467,
      "र": 468,
      "ल": 469,
      "व": 470,
      "श": 471,
      "स": 472,
      "ह": 473,
      "ा": 474,
      "ि": 475,
      "ी": 476,
      "ु": 477,
      "े": 478,
      "ो": 479,
      "्": 480,
      "র": 481,
      "া": 482,
      "ি": 483,
      "ে": 484,
      "্": 485,
      "க": 486,
      "த": 487,
      "ப": 488,
      "ம": 489,
      "ா": 490,
      "ி": 491,
      "ு": 492,
      "்": 493,
      "ದ": 494,
      "ರ": 495,
      "ಾ": 496,
      "ಿ": 497,
      "ು": 498,
      "್": 499,
      "ം": 500,
      "ക": 501,
      "ട": 502,
      "ത": 503,
      "ന": 504,
      "പ": 505,
      "മ": 506,
      "യ": 507,
      "ര": 508,
      "ല": 509,
      "ാ": 510,
      "ി": 511,
      "ു": 512,
      "െ": 513,
      "്": 514,
      "ก": 515,
      "ง": 516,
      "ด": 517,
      "ท": 518,
      "น": 519,
      "ม": 520,
      "ย": 521,
      "ร": 522,
      "ล": 523,
      "ว": 524,
      "ส": 525,
      "อ": 526,
      "ั": 527,
      "า": 528,
      "ิ": 529,
      "ี": 530,
      "เ": 531,
      "่": 532,
      "้": 533,
      "๎": 534,
      "་": 535,
      "ḥ": 536,
      "ṃ": 537,
      "ṇ": 538,
      "ṛ": 539,
      "ṣ": 540,
      "ṭ": 541,
      "ệ": 542,
      "​": 543,
      "‌": 544,
      "‍": 545,
      "‎": 546,
      "‏": 547,
      "‐": 548,
      "‑": 549,
      "‒": 550,
      "–": 551,
      "—": 552,
      "―": 553,
      "‘": 554,
      "’": 555,
      "‚": 556,
      "“": 557,
      "”": 558,
      "„": 559,
      "†": 560,
      "‡": 561,
      "•": 562,
      "…": 563,
      "‪": 564,
      "‬": 565,
      "′": 566,
      "″": 567,
      "‹": 568,
      "›": 569,
      "※": 570,
      "‾": 571,
      "⁄": 572,
      "⁡": 573,
      "€": 574,
      "₹": 575,
      "™": 576,
      "⅓": 577,
      "←": 578,
      "↑": 579,
      "→": 580,
      "↓": 581,
      "↩": 582,
      "↪": 583,
      "⇒": 584,
      "⇓": 585,
      "∀": 586,
      "∂": 587,
      "∈": 588,
      "∑": 589,
      "−": 590,
      "∗": 591,
      "√": 592,
      "∞": 593,
      "∧": 594,
      "∫": 595,
      "∴": 596,
      "∵": 597,
      "∼": 598,
      "∿": 599,
      "≈": 600,
      "≠": 601,
      "≡": 602,
      "≤": 603,
      "≥": 604,
      "⊗": 605,
      "⋅": 606,
      "⌘": 607,
      "─": 608,
      "│": 609,
      "└": 610,
      "├": 611,
      "═": 612,
      "║": 613,
      "▀": 614,
      "▄": 615,
      "█": 616,
      "░": 617,
      "▒": 618,
      "■": 619,
      "▢": 620,
      "▪": 621,
      "▬": 622,
      "▲": 623,
      "▶": 624,
      "►": 625,
      "▼": 626,
      "◆": 627,
      "◇": 628,
      "◊": 629,
      "○": 630,
      "●": 631,
      "★": 632,
      "☆": 633,
      "♠": 634,
      "♥": 635,
      "♦": 636,
      "♪": 637,
      "♭": 638,
      "⚪": 639,
      "✓": 640,
      "✔": 641,
      "❤": 642,
      "➤": 643,
      "⟨": 644,
      "⟩": 645,
      "、": 646,
      "。": 647,
      "〉": 648,
      "《": 649,
      "》": 650,
      "「": 651,
      "」": 652,
      "『": 653,
      "』": 654,
      "【": 655,
      "】": 656,
      "あ": 657,
      "い": 658,
      "う": 659,
      "え": 660,
      "お": 661,
      "か": 662,
      "が": 663,
      "き": 664,
      "く": 665,
      "け": 666,
      "こ": 667,
      "ご": 668,
      "さ": 669,
      "し": 670,
      "じ": 671,
      "す": 672,
      "ず": 673,
      "せ": 674,
      "そ": 675,
      "た": 676,
      "だ": 677,
      "ち": 678,
      "っ": 679,
      "つ": 680,
      "て": 681,
      "で": 682,
      "と": 683,
      "ど": 684,
      "な": 685,
      "に": 686,
      "ね": 687,
      "の": 688,
      "は": 689,
      "ば": 690,
      "へ": 691,
      "ま": 692,
      "み": 693,
      "め": 694,
      "も": 695,
      "ゃ": 696,
      "や": 697,
      "ょ": 698,
      "よ": 699,
      "ら": 700,
      "り": 701,
      "る": 702,
      "れ": 703,
      "ろ": 704,
      "わ": 705,
      "を": 706,
      "ん": 707,
      "ァ": 708,
      "ア": 709,
      "ィ": 710,
      "イ": 711,
      "ウ": 712,
      "ェ": 713,
      "エ": 714,
      "オ": 715,
      "カ": 716,
      "ガ": 717,
      "キ": 718,
      "ク": 719,
      "グ": 720,
      "コ": 721,
      "サ": 722,
      "シ": 723,
      "ジ": 724,
      "ス": 725,
      "ズ": 726,
      "セ": 727,
      "ソ": 728,
      "タ": 729,
      "ダ": 730,
      "チ": 731,
      "ッ": 732,
      "ツ": 733,
      "テ": 734,
      "デ": 735,
      "ト": 736,
      "ド": 737,
      "ナ": 738,
      "ニ": 739,
      "ネ": 740,
      "ノ": 741,
      "ハ": 742,
      "バ": 743,
      "パ": 744,
      "ビ": 745,
      "フ": 746,
      "ブ": 747,
      "プ": 748,
      "ベ": 749,
      "ボ": 750,
      "ポ": 751,
      "マ": 752,
      "ミ": 753,
      "ム": 754,
      "メ": 755,
      "モ": 756,
      "ャ": 757,
      "ュ": 758,
      "ョ": 759,
      "ラ": 760,
      "リ": 761,
      "ル": 762,
      "レ": 763,
      "ロ": 764,
      "ン": 765,
      "・": 766,
      "ー": 767,
      "ヽ": 768,
      "ㅋ": 769,
      "ㅠ": 770,
      "一": 771,
      "三": 772,
      "上": 773,
      "下": 774,
      "不": 775,
      "世": 776,
      "个": 777,
      "中": 778,
      "为": 779,
      "主": 780,
      "之": 781,
      "也": 782,
      "了": 783,
      "事": 784,
      "二": 785,
      "人": 786,
      "今": 787,
      "他": 788,
      "代": 789,
      "以": 790,
      "们": 791,
      "会": 792,
      "体": 793,
      "何": 794,
      "作": 795,
      "你": 796,
      "使": 797,
      "信": 798,
      "元": 799,
      "入": 800,
      "全": 801,
      "公": 802,
      "内": 803,
      "出": 804,
      "分": 805,
      "利": 806,
      "到": 807,
      "前": 808,
      "力": 809,
      "加": 810,
      "動": 811,
      "化": 812,
      "可": 813,
      "合": 814,
      "同": 815,
      "名": 816,
      "向": 817,
      "和": 818,
      "回": 819,
      "国": 820,
      "在": 821,
      "地": 822,
      "場": 823,
      "変": 824,
      "外": 825,
      "多": 826,
      "大": 827,
      "天": 828,
      "女": 829,
      "好": 830,
      "如": 831,
      "子": 832,
      "学": 833,
      "安": 834,
      "定": 835,
      "実": 836,
      "家": 837,
      "小": 838,
      "就": 839,
      "山": 840,
      "市": 841,
      "平": 842,
      "年": 843,
      "度": 844,
      "式": 845,
      "当": 846,
      "後": 847,
      "得": 848,
      "心": 849,
      "思": 850,
      "性": 851,
      "情": 852,
      "意": 853,
      "感": 854,
      "成": 855,
      "我": 856,
      "戦": 857,
      "所": 858,
      "手": 859,
      "持": 860,
      "数": 861,
      "文": 862,
      "新": 863,
      "方": 864,
      "日": 865,
      "明": 866,
      "是": 867,
      "時": 868,
      "書": 869,
      "最": 870,
      "月": 871,
      "有": 872,
      "服": 873,
      "木": 874,
      "本": 875,
      "来": 876,
      "果": 877,
      "機": 878,
      "正": 879,
      "民": 880,
      "気": 881,
      "水": 882,
      "法": 883,
      "海": 884,
      "無": 885,
      "然": 886,
      "物": 887,
      "特": 888,
      "王": 889,
      "理": 890,
      "生": 891,
      "用": 892,
      "田": 893,
      "界": 894,
      "発": 895,
      "的": 896,
      "目": 897,
      "着": 898,
      "知": 899,
      "社": 900,
      "神": 901,
      "立": 902,
      "第": 903,
      "网": 904,
      "者": 905,
      "而": 906,
      "能": 907,
      "自": 908,
      "行": 909,
      "表": 910,
      "要": 911,
      "見": 912,
      "言": 913,
      "語": 914,
      "起": 915,
      "这": 916,
      "通": 917,
      "道": 918,
      "那": 919,
      "部": 920,
      "都": 921,
      "金": 922,
      "銀": 923,
      "長": 924,
      "開": 925,
      "間": 926,
      "集": 927,
      "面": 928,
      "高": 929,
      "魔": 930,
      "가": 931,
      "거": 932,
      "것": 933,
      "게": 934,
      "고": 935,
      "공": 936,
      "과": 937,
      "국": 938,
      "그": 939,
      "기": 940,
      "나": 941,
      "는": 942,
      "니": 943,
      "다": 944,
      "대": 945,
      "데": 946,
      "도": 947,
      "동": 948,
      "드": 949,
      "들": 950,
      "라": 951,
      "로": 952,
      "를": 953,
      "리": 954,
      "마": 955,
      "만": 956,
      "면": 957,
      "미": 958,
      "보": 959,
      "부": 960,
      "사": 961,
      "상": 962,
      "서": 963,
      "선": 964,
      "성": 965,
      "수": 966,
      "스": 967,
      "시": 968,
      "아": 969,
      "어": 970,
      "에": 971,
      "여": 972,
      "오": 973,
      "요": 974,
      "우": 975,
      "원": 976,
      "으": 977,
      "은": 978,
      "을": 979,
      "의": 980,
      "이": 981,
      "인": 982,
      "일": 983,
      "있": 984,
      "자": 985,
      "장": 986,
      "전": 987,
      "정": 988,
      "제": 989,
      "주": 990,
      "지": 991,
      "진": 992,
      "타": 993,
      "트": 994,
      "하": 995,
      "한": 996,
      "해": 997,
      "했": 998,
      "": 999,
      "": 1000,
      "": 1001,
      "ﬁ": 1002,
      "ﬂ": 1003,
      "️": 1004,
      "﻿": 1005,
      "！": 1006,
      "（": 1007,
      "）": 1008,
      "，": 1009,
      "／": 1010,
      "１": 1011,
      "：": 1012,
      "？": 1013,
      "＼": 1014,
      "＿": 1015,
      "～": 1016,
      "｡": 1017,
      "･": 1018,
      "ﾟ": 1019,
      "￣": 1020,
      "￼": 1021,
      "�": 1022,
      "🇸": 1023,
      "🇺": 1024,
      "😀": 1025,
      "😂": 1026,
      "😉": 1027,
      "🙂": 1028,
      "th": 1029,
      "in": 1030,
      "er": 1031,
      "an": 1032,
      "the": 1033,
      "on": 1034,
      "re": 1035,
      "at": 1036,
      "en": 1037,
      "or": 1038,
      "st": 1039,
      "al": 1040,
      "ed": 1041,
      "ou": 1042,
      "ing": 1043,
      "to": 1044,
      "is": 1045,
      "ar": 1046,
      "it": 1047,
      "es": 1048,
      "of": 1049,
      "and": 1050,
      "as": 1051,
      "ic": 1052,
      "le": 1053,
      "ion": 1054,
      "om": 1055,
      "he": 1056,
      "ent": 1057,
      "se": 1058,
      "il": 1059,
      "ac": 1060,
      "be": 1061,
      "ve": 1062,
      "ly": 1063,
      "id": 1064,
      "ro": 1065,
      "ad": 1066,
      "for": 1067,
      "am": 1068,
      "that": 1069,
      "ch": 1070,
      "ow": 1071,
      "ay": 1072,
      "wh": 1073,
      "im": 1074,
      "ig": 1075,
      "ol": 1076,
      "ver": 1077,
      "ot": 1078,
      "ut": 1079,
      "un": 1080,
      "et": 1081,
      "ith": 1082,
      "ur": 1083,
      "de": 1084,
      "ir": 1085,
      "ce": 1086,
      "ation": 1087,
      "ct": 1088,
      "are": 1089,
      "ab": 1090,
      "ag": 1091,
      "ter": 1092,
      "con": 1093,
      "The": 1094,
      "with": 1095,
      "us": 1096,
      "li": 1097,
      "ers": 1098,
      "ere": 1099,
      "op": 1100,
      "el": 1101,
      "mo": 1102,
      "com": 1103,
      "ha": 1104,
      "ill": 1105,
      "su": 1106,
      "ne": 1107,
      "you": 1108,
      "was": 1109,
      "ke": 1110,
      "ld": 1111,
      "all": 1112,
      "pe": 1113,
      "out": 1114,
      "pl": 1115,
      "pro": 1116,
      "ri": 1117,
      "ate": 1118,
      "ul": 1119,
      "res": 1120,
      "we": 1121,
      "em": 1122,
      "ex": 1123,
      "fr": 1124,
      "ap": 1125,
      "lo": 1126,
      "igh": 1127,
      "ain": 1128,
      "ment": 1129,
      "oun": 1130,
      "tr": 1131,
      "sh": 1132,
      "one": 1133,
      "by": 1134,
      "if": 1135,
      "so": 1136,
      "his": 1137,
      "ist": 1138,
      "our": 1139,
      "not": 1140,
      "art": 1141,
      "ant": 1142,
      "have": 1143,
      "ess": 1144,
      "ity": 1145,
      "ould": 1146,
      "po": 1147,
      "ther": 1148,
      "te": 1149,
      "from": 1150,
      "um": 1151,
      "this": 1152,
      "sa": 1153,
      "ive": 1154,
      "qu": 1155,
      "ight": 1156,
      "act": 1157,
      "ust": 1158,
      "per": 1159,
      "go": 1160,
      "ort": 1161,
      "wor": 1162,
      "ast": 1163,
      "end": 1164,
      "ge": 1165,
      "has": 1166,
      "od": 1167,
      "20": 1168,
      "ack": 1169,
      "fe": 1170,
      "up": 1171,
      "do": 1172,
      "ally": 1173,
      "ies": 1174,
      "but": 1175,
      "ome": 1176,
      "ear": 1177,
      "In": 1178,
      "gh": 1179,
      "ard": 1180,
      "cl": 1181,
      "any": 1182,
      "ak": 1183,
      "co": 1184,
      "me": 1185,
      "they": 1186,
      "can": 1187,
      "will": 1188,
      "au": 1189,
      "said": 1190,
      "pr": 1191,
      "ind": 1192,
      "ci": 1193,
      "gr": 1194,
      "ans": 1195,
      "who": 1196,
      "port": 1197,
      "ough": 1198,
      "ich": 1199,
      "Th": 1200,
      "der": 1201,
      "ame": 1202,
      "iv": 1203,
      "ev": 1204,
      "ide": 1205,
      "their": 1206,
      "ok": 1207,
      "more": 1208,
      "now": 1209,
      "00": 1210,
      "ice": 1211,
      "af": 1212,
      "tim": 1213,
      "ong": 1214,
      "age": 1215,
      "est": 1216,
      "ound": 1217,
      "ous": 1218,
      "ine": 1219,
      "red": 1220,
      "ud": 1221,
      "bl": 1222,
      "no": 1223,
      "ions": 1224,
      "bo": 1225,
      "about": 1226,
      "ber": 1227,
      "some": 1228,
      "off": 1229,
      "ated": 1230,
      "had": 1231,
      "year": 1232,
      "its": 1233,
      "ie": 1234,
      "It": 1235,
      "ck": 1236,
      "day": 1237,
      "ell": 1238,
      "int": 1239,
      "which": 1240,
      "were": 1241,
      "fo": 1242,
      "ep": 1243,
      "able": 1244,
      "would": 1245,
      "ia": 1246,
      "thing": 1247,
      "way": 1248,
      "man": 1249,
      "cr": 1250,
      "ass": 1251,
      "ence": 1252,
      "like": 1253,
      "ake": 1254,
      "comp": 1255,
      "ure": 1256,
      "very": 1257,
      "ll": 1258,
      "other": 1259,
      "own": 1260,
      "iz": 1261,
      "ach": 1262,
      "been": 1263,
      "av": 1264,
      "get": 1265,
      "work": 1266,
      "An": 1267,
      "ary": 1268,
      "her": 1269,
      "sp": 1270,
      "over": 1271,
      "ign": 1272,
      "cre": 1273,
      "201": 1274,
      "new": 1275,
      "ace": 1276,
      "ip": 1277,
      "ite": 1278,
      "part": 1279,
      "cont": 1280,
      "Wh": 1281,
      "str": 1282,
      "form": 1283,
      "St": 1284,
      "dis": 1285,
      "ue": 1286,
      "ire": 1287,
      "pres": 1288,
      "ail": 1289,
      "my": 1290,
      "than": 1291,
      "ile": 1292,
      "pos": 1293,
      "ople": 1294,
      "ts": 1295,
      "there": 1296,
      "ish": 1297,
      "aw": 1298,
      "cent": 1299,
      "ser": 1300,
      "time": 1301,
      "pre": 1302,
      "ical": 1303,
      "ial": 1304,
      "also": 1305,
      "what": 1306,
      "them": 1307,
      "Ch": 1308,
      "just": 1309,
      "play": 1310,
      "br": 1311,
      "when": 1312,
      "your": 1313,
      "people": 1314,
      "att": 1315,
      "He": 1316,
      "fir": 1317,
      "ble": 1318,
      "ick": 1319,
      "cor": 1320,
      "fer": 1321,
      "ren": 1322,
      "tw": 1323,
      "pt": 1324,
      "19": 1325,
      "ations": 1326,
      "ens": 1327,
      "inter": 1328,
      "low": 1329,
      "pol": 1330,
      "ef": 1331,
      "ction": 1332,
      "say": 1333,
      "ance": 1334,
      "ase": 1335,
      "We": 1336,
      "ree": 1337,
      "into": 1338,
      "ink": 1339,
      "mon": 1340,
      ".”": 1341,
      "mer": 1342,
      "ang": 1343,
      "old": 1344,
      "ty": 1345,
      "vel": 1346,
      "ark": 1347,
      "ory": 1348,
      "ian": 1349,
      "most": 1350,
      "ob": 1351,
      "how": 1352,
      "ition": 1353,
      "ident": 1354,
      "coun": 1355,
      "back": 1356,
      "cau": 1357,
      "ph": 1358,
      "know": 1359,
      "ates": 1360,
      "ors": 1361,
      "amp": 1362,
      "du": 1363,
      "ade": 1364,
      "spe": 1365,
      "she": 1366,
      "ra": 1367,
      "og": 1368,
      "after": 1369,
      "This": 1370,
      "cess": 1371,
      "ubl": 1372,
      "cause": 1373,
      "But": 1374,
      "ose": 1375,
      "ful": 1376,
      "first": 1377,
      ",”": 1378,
      "him": 1379,
      "could": 1380,
      "vers": 1381,
      "pp": 1382,
      "cur": 1383,
      "fore": 1384,
      "min": 1385,
      "only": 1386,
      "sel": 1387,
      "ning": 1388,
      "two": 1389,
      "ild": 1390,
      "ting": 1391,
      "ry": 1392,
      "row": 1393,
      "enc": 1394,
      "bet": 1395,
      "And": 1396,
      "ater": 1397,
      "ious": 1398,
      "read": 1399,
      "med": 1400,
      "Un": 1401,
      "--": 1402,
      "sy": 1403,
      ".\"": 1404,
      "comm": 1405,
      "ew": 1406,
      "under": 1407,
      "don": 1408,
      "des": 1409,
      "fin": 1410,
      "where": 1411,
      "did": 1412,
      "add": 1413,
      "see": 1414,
      "ict": 1415,
      "bu": 1416,
      "right": 1417,
      "again": 1418,
      "ents": 1419,
      "use": 1420,
      "Tr": 1421,
      "even": 1422,
      "want": 1423,
      "gu": 1424,
      "reg": 1425,
      "si": 1426,
      "sc": 1427,
      "because": 1428,
      "ating": 1429,
      "come": 1430,
      "ason": 1431,
      "ual": 1432,
      "years": 1433,
      "ult": 1434,
      "need": 1435,
      "As": 1436,
      "ublic": 1437,
      "fl": 1438,
      "rough": 1439,
      "call": 1440,
      "col": 1441,
      "je": 1442,
      "10": 1443,
      "ving": 1444,
      "ho": 1445,
      "ved": 1446,
      "..": 1447,
      "ress": 1448,
      "reat": 1449,
      "dr": 1450,
      "many": 1451,
      "ever": 1452,
      "down": 1453,
      ",\"": 1454,
      "every": 1455,
      "used": 1456,
      "os": 1457,
      "Re": 1458,
      "then": 1459,
      "make": 1460,
      "look": 1461,
      "try": 1462,
      "urn": 1463,
      "rel": 1464,
      "ins": 1465,
      "these": 1466,
      "cial": 1467,
      "incl": 1468,
      "uch": 1469,
      "dif": 1470,
      "ener": 1471,
      "cord": 1472,
      "air": 1473,
      "think": 1474,
      "leg": 1475,
      "iss": 1476,
      "being": 1477,
      "cer": 1478,
      "hel": 1479,
      "ational": 1480,
      "itt": 1481,
      "ments": 1482,
      "arch": 1483,
      "vie": 1484,
      "though": 1485,
      "may": 1486,
      "lect": 1487,
      "ise": 1488,
      "point": 1489,
      "ath": 1490,
      "ek": 1491,
      "well": 1492,
      "ject": 1493,
      "land": 1494,
      "De": 1495,
      "ank": 1496,
      "long": 1497,
      "state": 1498,
      "ump": 1499,
      "through": 1500,
      "oup": 1501,
      "200": 1502,
      "ced": 1503,
      "cho": 1504,
      "ative": 1505,
      "last": 1506,
      "set": 1507,
      "Amer": 1508,
      "self": 1509,
      "ased": 1510,
      "Americ": 1511,
      "New": 1512,
      ").": 1513,
      "aking": 1514,
      "ited": 1515,
      "should": 1516,
      "ore": 1517,
      "less": 1518,
      "ash": 1519,
      "ug": 1520,
      "show": 1521,
      "those": 1522,
      "let": 1523,
      "rem": 1524,
      "high": 1525,
      "ities": 1526,
      "ann": 1527,
      "pect": 1528,
      "much": 1529,
      "cle": 1530,
      "imp": 1531,
      "uring": 1532,
      "ven": 1533,
      "If": 1534,
      "You": 1535,
      "atch": 1536,
      "oy": 1537,
      "gover": 1538,
      "tain": 1539,
      "does": 1540,
      "ics": 1541,
      "going": 1542,
      "car": 1543,
      "For": 1544,
      "ss": 1545,
      "govern": 1546,
      "wr": 1547,
      "tal": 1548,
      "start": 1549,
      "fun": 1550,
      "ces": 1551,
      "fect": 1552,
      "vis": 1553,
      "ask": 1554,
      "stand": 1555,
      "pers": 1556,
      "before": 1557,
      "als": 1558,
      "team": 1559,
      "report": 1560,
      "led": 1561,
      "put": 1562,
      "ince": 1563,
      "while": 1564,
      "made": 1565,
      "cond": 1566,
      "view": 1567,
      "sur": 1568,
      "ves": 1569,
      "such": 1570,
      "So": 1571,
      "world": 1572,
      "pon": 1573,
      "Al": 1574,
      "ange": 1575,
      "ma": 1576,
      "ific": 1577,
      "sup": 1578,
      "ily": 1579,
      "dec": 1580,
      "lar": 1581,
      "Con": 1582,
      "turn": 1583,
      "game": 1584,
      "ms": 1585,
      "),": 1586,
      "lead": 1587,
      "produ": 1588,
      "sub": 1589,
      "ings": 1590,
      "oc": 1591,
      "good": 1592,
      "cons": 1593,
      "They": 1594,
      "stud": 1595,
      "ular": 1596,
      "tri": 1597,
      "week": 1598,
      "ility": 1599,
      "stem": 1600,
      "les": 1601,
      "ys": 1602,
      "fi": 1603,
      "gan": 1604,
      "ton": 1605,
      "ually": 1606,
      "Ar": 1607,
      "che": 1608,
      "ward": 1609,
      "against": 1610,
      "includ": 1611,
      "char": 1612,
      "run": 1613,
      "test": 1614,
      "still": 1615,
      "ext": 1616,
      "Se": 1617,
      "There": 1618,
      "here": 1619,
      "io": 1620,
      "law": 1621,
      "app": 1622,
      "help": 1623,
      "Fr": 1624,
      "fact": 1625,
      "illion": 1626,
      "ner": 1627,
      "line": 1628,
      "ween": 1629,
      "take": 1630,
      "ower": 1631,
      "head": 1632,
      "says": 1633,
      "sm": 1634,
      "olog": 1635,
      "differ": 1636,
      "real": 1637,
      "000": 1638,
      "Com": 1639,
      "cut": 1640,
      "sign": 1641,
      "offic": 1642,
      "ub": 1643,
      "ism": 1644,
      "num": 1645,
      "That": 1646,
      "ied": 1647,
      "clo": 1648,
      "quest": 1649,
      "between": 1650,
      "government": 1651,
      "same": 1652,
      "prov": 1653,
      "la": 1654,
      "Is": 1655,
      "No": 1656,
      "serv": 1657,
      "ollow": 1658,
      "ists": 1659,
      "trans": 1660,
      "eng": 1661,
      "cour": 1662,
      "son": 1663,
      "war": 1664,
      "hand": 1665,
      "cap": 1666,
      "system": 1667,
      "Trump": 1668,
      "ames": 1669,
      "Br": 1670,
      "around": 1671,
      "book": 1672,
      "velop": 1673,
      "person": 1674,
      "three": 1675,
      "Le": 1676,
      "side": 1677,
      "ax": 1678,
      "On": 1679,
      "ures": 1680,
      "fam": 1681,
      "uss": 1682,
      "inst": 1683,
      "support": 1684,
      "group": 1685,
      "ters": 1686,
      "wom": 1687,
      "public": 1688,
      "mem": 1689,
      "ouse": 1690,
      "ds": 1691,
      "ten": 1692,
      "vi": 1693,
      "found": 1694,
      "really": 1695,
      "ff": 1696,
      "val": 1697,
      "got": 1698,
      "vest": 1699,
      "Be": 1700,
      "mark": 1701,
      "pri": 1702,
      "12": 1703,
      "ave": 1704,
      "press": 1705,
      "sure": 1706,
      "US": 1707,
      "peri": 1708,
      "ways": 1709,
      ".[": 1710,
      "sul": 1711,
      "happ": 1712,
      "lot": 1713,
      "fil": 1714,
      "15": 1715,
      "gest": 1716,
      "vol": 1717,
      "Jo": 1718,
      "both": 1719,
      "month": 1720,
      "big": 1721,
      "det": 1722,
      "issu": 1723,
      "irect": 1724,
      "find": 1725,
      "ense": 1726,
      "cal": 1727,
      "power": 1728,
      "def": 1729,
      "cept": 1730,
      "Cl": 1731,
      "top": 1732,
      "life": 1733,
      "ost": 1734,
      "miss": 1735,
      "ices": 1736,
      "aren": 1737,
      "alth": 1738,
      "develop": 1739,
      "polit": 1740,
      "ship": 1741,
      "respon": 1742,
      "ages": 1743,
      "net": 1744,
      "too": 1745,
      "ng": 1746,
      "during": 1747,
      "ale": 1748,
      "ft": 1749,
      "gener": 1750,
      "xt": 1751,
      "par": 1752,
      "follow": 1753,
      "told": 1754,
      "beli": 1755,
      "How": 1756,
      "11": 1757,
      "list": 1758,
      "appe": 1759,
      "ically": 1760,
      "ared": 1761,
      "came": 1762,
      "ines": 1763,
      "expl": 1764,
      "pass": 1765,
      "season": 1766,
      "stru": 1767,
      "since": 1768,
      "bre": 1769,
      "few": 1770,
      "rest": 1771,
      "place": 1772,
      "ider": 1773,
      "using": 1774,
      "Ad": 1775,
      "light": 1776,
      "cording": 1777,
      "bers": 1778,
      "vot": 1779,
      "akes": 1780,
      "contin": 1781,
      "aim": 1782,
      "bus": 1783,
      "az": 1784,
      "18": 1785,
      "ris": 1786,
      "ivers": 1787,
      "national": 1788,
      "At": 1789,
      "far": 1790,
      "allow": 1791,
      "ata": 1792,
      "30": 1793,
      "ues": 1794,
      "ars": 1795,
      "something": 1796,
      "commun": 1797,
      "ody": 1798,
      "ime": 1799,
      "ution": 1800,
      "vent": 1801,
      "rele": 1802,
      "giv": 1803,
      "blo": 1804,
      "care": 1805,
      "another": 1806,
      "post": 1807,
      "order": 1808,
      "invest": 1809,
      "sol": 1810,
      "ah": 1811,
      "chool": 1812,
      "clear": 1813,
      "different": 1814,
      "ized": 1815,
      "unt": 1816,
      "each": 1817,
      "open": 1818,
      "camp": 1819,
      "child": 1820,
      "bit": 1821,
      "kill": 1822,
      "ready": 1823,
      "When": 1824,
      "rent": 1825,
      "Pro": 1826,
      "gram": 1827,
      "things": 1828,
      "search": 1829,
      "second": 1830,
      "ush": 1831,
      "might": 1832,
      "gy": 1833,
      "called": 1834,
      "possi": 1835,
      "ants": 1836,
      "never": 1837,
      "cover": 1838,
      "contro": 1839,
      "ement": 1840,
      "best": 1841,
      "ross": 1842,
      "next": 1843,
      "Sh": 1844,
      "home": 1845,
      "What": 1846,
      "atter": 1847,
      "iness": 1848,
      "ize": 1849,
      "dist": 1850,
      "di": 1851,
      "ted": 1852,
      "pay": 1853,
      "move": 1854,
      "requ": 1855,
      "ness": 1856,
      "sing": 1857,
      "hum": 1858,
      "por": 1859,
      "change": 1860,
      "ger": 1861,
      "including": 1862,
      "direct": 1863,
      "build": 1864,
      "percent": 1865,
      "seem": 1866,
      "ittle": 1867,
      "feel": 1868,
      "oper": 1869,
      "ps": 1870,
      "ital": 1871,
      "ball": 1872,
      "inform": 1873,
      "level": 1874,
      "million": 1875,
      "pop": 1876,
      "50": 1877,
      "She": 1878,
      "lim": 1879,
      "incre": 1880,
      "mar": 1881,
      "hard": 1882,
      "conom": 1883,
      "plan": 1884,
      "resident": 1885,
      "interest": 1886,
      "import": 1887,
      "ood": 1888,
      "resul": 1889,
      "present": 1890,
      "oth": 1891,
      "without": 1892,
      "men": 1893,
      "won": 1894,
      "number": 1895,
      "king": 1896,
      "ele": 1897,
      "case": 1898,
      "soci": 1899,
      "great": 1900,
      "ama": 1901,
      "four": 1902,
      "ately": 1903,
      "bro": 1904,
      "country": 1905,
      "proble": 1906,
      "sum": 1907,
      "Rep": 1908,
      "cy": 1909,
      "ier": 1910,
      "tech": 1911,
      "American": 1912,
      "16": 1913,
      "dri": 1914,
      "partic": 1915,
      "ons": 1916,
      "ets": 1917,
      "oney": 1918,
      "Mar": 1919,
      "prom": 1920,
      "To": 1921,
      "better": 1922,
      "ably": 1923,
      "riend": 1924,
      "cri": 1925,
      "ling": 1926,
      "ished": 1927,
      "mil": 1928,
      "uro": 1929,
      "sit": 1930,
      "recent": 1931,
      "eld": 1932,
      "little": 1933,
      "keep": 1934,
      "win": 1935,
      "attack": 1936,
      "left": 1937,
      "main": 1938,
      "class": 1939,
      "ral": 1940,
      "Af": 1941,
      "prof": 1942,
      "hist": 1943,
      "ature": 1944,
      "14": 1945,
      "tra": 1946,
      "gre": 1947,
      "uck": 1948,
      "ency": 1949,
      "iting": 1950,
      "fic": 1951,
      "appro": 1952,
      "jor": 1953,
      "Ob": 1954,
      "effect": 1955,
      "organ": 1956,
      "claim": 1957,
      "nor": 1958,
      "ese": 1959,
      "ern": 1960,
      "didn": 1961,
      "ib": 1962,
      "econom": 1963,
      "grow": 1964,
      "free": 1965,
      "data": 1966,
      "del": 1967,
      "den": 1968,
      "wit": 1969,
      "program": 1970,
      "chang": 1971,
      "ina": 1972,
      "met": 1973,
      "dep": 1974,
      "ont": 1975,
      "ety": 1976,
      "friend": 1977,
      "13": 1978,
      "body": 1979,
      "school": 1980,
      "ned": 1981,
      "ord": 1982,
      "__": 1983,
      "police": 1984,
      "near": 1985,
      "vious": 1986,
      "ability": 1987,
      "Pr": 1988,
      "based": 1989,
      "ather": 1990,
      "inal": 1991,
      "ional": 1992,
      "rist": 1993,
      "eas": 1994,
      "ret": 1995,
      "ks": 1996,
      "atic": 1997,
      "key": 1998,
      "expect": 1999,
      "spec": 2000,
      "17": 2001,
      "thor": 2002,
      "company": 2003,
      "process": 2004,
      "Nor": 2005,
      "ref": 2006,
      "reason": 2007,
      "ired": 2008,
      "ats": 2009,
      "Co": 2010,
      "comple": 2011,
      "pur": 2012,
      "current": 2013,
      "hn": 2014,
      "night": 2015,
      "tell": 2016,
      "ator": 2017,
      "women": 2018,
      "One": 2019,
      "Ro": 2020,
      "hold": 2021,
      "president": 2022,
      "ploy": 2023,
      "ending": 2024,
      "Can": 2025,
      "small": 2026,
      "tem": 2027,
      "United": 2028,
      "coming": 2029,
      "away": 2030,
      "ided": 2031,
      "action": 2032,
      "later": 2033,
      "rece": 2034,
      "var": 2035,
      "minist": 2036,
      "aph": 2037,
      "city": 2038,
      "vir": 2039,
      "bal": 2040,
      "official": 2041,
      "ended": 2042,
      "cu": 2043,
      "ration": 2044,
      "ork": 2045,
      "why": 2046,
      "already": 2047,
      "business": 2048,
      "ives": 2049,
      "story": 2050,
      "mocr": 2051,
      "ca": 2052,
      "money": 2053,
      "adv": 2054,
      "information": 2055,
      "face": 2056,
      "making": 2057,
      "health": 2058,
      "Col": 2059,
      "ude": 2060,
      "25": 2061,
      "und": 2062,
      "ones": 2063,
      "techn": 2064,
      "ric": 2065,
      "always": 2066,
      "imes": 2067,
      "ards": 2068,
      "whe": 2069,
      "All": 2070,
      "experi": 2071,
      "design": 2072,
      "sever": 2073,
      "simp": 2074,
      "major": 2075,
      "enter": 2076,
      "Mr": 2077,
      "ago": 2078,
      "Bl": 2079,
      "job": 2080,
      "ised": 2081,
      "elect": 2082,
      "consider": 2083,
      "comes": 2084,
      "Gr": 2085,
      "ute": 2086,
      "iversity": 2087,
      "past": 2088,
      "hop": 2089,
      "ik": 2090,
      "project": 2091,
      "fort": 2092,
      "aign": 2093,
      "bed": 2094,
      "Or": 2095,
      "days": 2096,
      "John": 2097,
      "Go": 2098,
      "ains": 2099,
      "hal": 2100,
      "ology": 2101,
      "edit": 2102,
      "Pl": 2103,
      "ged": 2104,
      "cost": 2105,
      "suc": 2106,
      "kind": 2107,
      "must": 2108,
      "tax": 2109,
      "bor": 2110,
      "important": 2111,
      "fac": 2112,
      "known": 2113,
      "large": 2114,
      "ample": 2115,
      "Mo": 2116,
      "unch": 2117,
      "que": 2118,
      "199": 2119,
      "...": 2120,
      "plic": 2121,
      "ural": 2122,
      "Car": 2123,
      "qual": 2124,
      "happen": 2125,
      "doesn": 2126,
      "name": 2127,
      "news": 2128,
      "outh": 2129,
      "acy": 2130,
      "working": 2131,
      "position": 2132,
      "gin": 2133,
      "least": 2134,
      "exp": 2135,
      "With": 2136,
      "late": 2137,
      "family": 2138,
      "possible": 2139,
      "May": 2140,
      "campaign": 2141,
      "ained": 2142,
      "sk": 2143,
      "ides": 2144,
      "mean": 2145,
      "IS": 2146,
      "Republic": 2147,
      "enough": 2148,
      "cas": 2149,
      "record": 2150,
      "likely": 2151,
      "site": 2152,
      "ey": 2153,
      "Li": 2154,
      "ision": 2155,
      "ribut": 2156,
      "vide": 2157,
      "deal": 2158,
      "human": 2159,
      "ury": 2160,
      "polic": 2161,
      "sho": 2162,
      "ney": 2163,
      "curity": 2164,
      "water": 2165,
      "political": 2166,
      "former": 2167,
      "inc": 2168,
      "tar": 2169,
      "Sy": 2170,
      "Mc": 2171,
      "until": 2172,
      "Ex": 2173,
      "ley": 2174,
      "research": 2175,
      "ster": 2176,
      "ians": 2177,
      "sex": 2178,
      "eral": 2179,
      "certain": 2180,
      "posed": 2181,
      "ror": 2182,
      "ences": 2183,
      "ple": 2184,
      "lear": 2185,
      "plac": 2186,
      "Euro": 2187,
      "took": 2188,
      "pot": 2189,
      "President": 2190,
      "Im": 2191,
      "sci": 2192,
      "ird": 2193,
      "often": 2194,
      "ste": 2195,
      "ground": 2196,
      "Ind": 2197,
      "sim": 2198,
      "market": 2199,
      "prote": 2200,
      "give": 2201,
      "room": 2202,
      "nam": 2203,
      "Don": 2204,
      "ix": 2205,
      "ER": 2206,
      "stop": 2207,
      "full": 2208,
      "actually": 2209,
      "jo": 2210,
      "aining": 2211,
      "bar": 2212,
      "become": 2213,
      "----": 2214,
      "ls": 2215,
      "ible": 2216,
      "After": 2217,
      "mor": 2218,
      "tract": 2219,
      "ined": 2220,
      "nal": 2221,
      "ru": 2222,
      "early": 2223,
      "hour": 2224,
      "according": 2225,
      "times": 2226,
      "Ac": 2227,
      "return": 2228,
      "gen": 2229,
      "went": 2230,
      "Man": 2231,
      "uc": 2232,
      "Russ": 2233,
      "Mon": 2234,
      "stre": 2235,
      "doing": 2236,
      "non": 2237,
      "games": 2238,
      "aid": 2239,
      "bas": 2240,
      "media": 2241,
      "seen": 2242,
      "Ph": 2243,
      "Pol": 2244,
      "Inter": 2245,
      "Sp": 2246,
      "graph": 2247,
      "sug": 2248,
      "crit": 2249,
      "24": 2250,
      "charac": 2251,
      "social": 2252,
      "event": 2253,
      "aring": 2254,
      "Ste": 2255,
      "five": 2256,
      "ben": 2257,
      "having": 2258,
      "ization": 2259,
      "children": 2260,
      "icle": 2261,
      "uture": 2262,
      "une": 2263,
      "eve": 2264,
      "course": 2265,
      "ying": 2266,
      "product": 2267,
      "Wor": 2268,
      "stit": 2269,
      "players": 2270,
      "ither": 2271,
      "Obama": 2272,
      "success": 2273,
      "author": 2274,
      "whether": 2275,
      "tt": 2276,
      "mber": 2277,
      "struct": 2278,
      "today": 2279,
      "mid": 2280,
      "2016": 2281,
      "York": 2282,
      "AT": 2283,
      "Europe": 2284,
      "milit": 2285,
      "force": 2286,
      "ought": 2287,
      "Not": 2288,
      "activ": 2289,
      "question": 2290,
      "employ": 2291,
      "count": 2292,
      "several": 2293,
      "meet": 2294,
      "fight": 2295,
      "wer": 2296,
      "members": 2297,
      "idence": 2298,
      "vil": 2299,
      "sent": 2300,
      "ensive": 2301,
      "half": 2302,
      "State": 2303,
      "close": 2304,
      "aken": 2305,
      "manag": 2306,
      "ories": 2307,
      "ran": 2308,
      "example": 2309,
      "along": 2310,
      "IN": 2311,
      "uary": 2312,
      "offer": 2313,
      "done": 2314,
      "cast": 2315,
      "priv": 2316,
      "States": 2317,
      "ential": 2318,
      "invol": 2319,
      "viol": 2320,
      "//": 2321,
      "fund": 2322,
      "short": 2323,
      "ots": 2324,
      "40": 2325,
      "100": 2326,
      "understand": 2327,
      "local": 2328,
      "trad": 2329,
      "ured": 2330,
      "Bo": 2331,
      "tion": 2332,
      "ped": 2333,
      "RE": 2334,
      "once": 2335,
      "young": 2336,
      "West": 2337,
      "Coun": 2338,
      "avail": 2339,
      "ron": 2340,
      "asked": 2341,
      "within": 2342,
      "months": 2343,
      "watch": 2344,
      "fig": 2345,
      "among": 2346,
      "concer": 2347,
      "However": 2348,
      "aff": 2349,
      "ler": 2350,
      "house": 2351,
      "investig": 2352,
      "orig": 2353,
      "thought": 2354,
      "Christ": 2355,
      "ient": 2356,
      "mus": 2357,
      "sour": 2358,
      "gether": 2359,
      "ilar": 2360,
      "While": 2361,
      "future": 2362,
      "mand": 2363,
      "vert": 2364,
      "field": 2365,
      "Sen": 2366,
      "yet": 2367,
      "given": 2368,
      "fail": 2369,
      "ague": 2370,
      "2015": 2371,
      "ified": 2372,
      "Dr": 2373,
      "problem": 2374,
      "Democr": 2375,
      "means": 2376,
      "acc": 2377,
      "ulation": 2378,
      "web": 2379,
      "community": 2380,
      "House": 2381,
      "legal": 2382,
      "gress": 2383,
      "issue": 2384,
      "pat": 2385,
      "En": 2386,
      "prob": 2387,
      "My": 2388,
      "across": 2389,
      "video": 2390,
      "itive": 2391,
      "augh": 2392,
      "suggest": 2393,
      "sl": 2394,
      "ivid": 2395,
      "mit": 2396,
      "reported": 2397,
      "ium": 2398,
      "party": 2399,
      "makes": 2400,
      "step": 2401,
      "ially": 2402,
      "getting": 2403,
      "spo": 2404,
      "ators": 2405,
      "strong": 2406,
      "gl": 2407,
      "control": 2408,
      "others": 2409,
      "dro": 2410,
      "hy": 2411,
      "wal": 2412,
      "depend": 2413,
      "Min": 2414,
      "descri": 2415,
      "fed": 2416,
      "ane": 2417,
      "together": 2418,
      "AN": 2419,
      "University": 2420,
      "disc": 2421,
      "Mic": 2422,
      "believe": 2423,
      "ech": 2424,
      "announ": 2425,
      "reach": 2426,
      "60": 2427,
      "Do": 2428,
      "ony": 2429,
      "oto": 2430,
      "2014": 2431,
      "ison": 2432,
      "ising": 2433,
      "gun": 2434,
      "love": 2435,
      "fall": 2436,
      "nes": 2437,
      "pret": 2438,
      "ali": 2439,
      "indust": 2440,
      "empt": 2441,
      "ington": 2442,
      "Some": 2443,
      "arm": 2444,
      "available": 2445,
      "22": 2446,
      "particular": 2447,
      "ived": 2448,
      "hind": 2449,
      "death": 2450,
      "foot": 2451,
      "ove": 2452,
      "ister": 2453,
      "deb": 2454,
      "America": 2455,
      "live": 2456,
      "urther": 2457,
      "started": 2458,
      "foc": 2459,
      "front": 2460,
      "looking": 2461,
      "access": 2462,
      "aster": 2463,
      "imm": 2464,
      "mom": 2465,
      "feat": 2466,
      "history": 2467,
      "ns": 2468,
      "series": 2469,
      "anal": 2470,
      "Ju": 2471,
      "kes": 2472,
      "War": 2473,
      "Now": 2474,
      "dev": 2475,
      "mind": 2476,
      "pract": 2477,
      "complete": 2478,
      ".,": 2479,
      "ond": 2480,
      "bur": 2481,
      "almost": 2482,
      "hip": 2483,
      "hit": 2484,
      "six": 2485,
      "Canad": 2486,
      "following": 2487,
      "selves": 2488,
      "tow": 2489,
      "Ger": 2490,
      "bi": 2491,
      "ON": 2492,
      "iter": 2493,
      "security": 2494,
      "Fe": 2495,
      "Ser": 2496,
      "trying": 2497,
      "bad": 2498,
      "film": 2499,
      "Bar": 2500,
      "mission": 2501,
      "Just": 2502,
      "idea": 2503,
      "gn": 2504,
      "80": 2505,
      "wa": 2506,
      "These": 2507,
      "uses": 2508,
      "isn": 2509,
      "tom": 2510,
      "ination": 2511,
      "rul": 2512,
      "ances": 2513,
      "mal": 2514,
      "aft": 2515,
      "Har": 2516,
      "fav": 2517,
      "compet": 2518,
      "cell": 2519,
      "added": 2520,
      "ails": 2521,
      "round": 2522,
      "area": 2523,
      "compan": 2524,
      "Eng": 2525,
      "loc": 2526,
      "conne": 2527,
      "23": 2528,
      "experience": 2529,
      "By": 2530,
      "ene": 2531,
      "itions": 2532,
      "talk": 2533,
      "proper": 2534,
      "court": 2535,
      "taken": 2536,
      "Sun": 2537,
      "player": 2538,
      "Res": 2539,
      "Me": 2540,
      "anything": 2541,
      "pick": 2542,
      "cop": 2543,
      "itional": 2544,
      "fire": 2545,
      "Isra": 2546,
      "cult": 2547,
      "North": 2548,
      "bill": 2549,
      "inton": 2550,
      "sof": 2551,
      "individ": 2552,
      "ustom": 2553,
      "space": 2554,
      "supp": 2555,
      "ww": 2556,
      "ference": 2557,
      "publ": 2558,
      "aper": 2559,
      "argu": 2560,
      "fully": 2561,
      "black": 2562,
      "saying": 2563,
      "His": 2564,
      "threat": 2565,
      "taking": 2566,
      "photo": 2567,
      "similar": 2568,
      "wanted": 2569,
      "omet": 2570,
      "Dep": 2571,
      "board": 2572,
      "sal": 2573,
      "military": 2574,
      "break": 2575,
      "cially": 2576,
      "defin": 2577,
      "ams": 2578,
      "block": 2579,
      "behind": 2580,
      "ecut": 2581,
      "Dav": 2582,
      "exist": 2583,
      "Ge": 2584,
      "entire": 2585,
      "World": 2586,
      "either": 2587,
      "impro": 2588,
      "uge": 2589,
      "date": 2590,
      "road": 2591,
      "Gu": 2592,
      "21": 2593,
      "food": 2594,
      "rather": 2595,
      "National": 2596,
      "discuss": 2597,
      "ott": 2598,
      "colle": 2599,
      "2013": 2600,
      "mess": 2601,
      "flu": 2602,
      "reed": 2603,
      "wide": 2604,
      "pen": 2605,
      "mult": 2606,
      "aver": 2607,
      "single": 2608,
      "tries": 2609,
      "cret": 2610,
      "works": 2611,
      "individual": 2612,
      "woman": 2613,
      "policy": 2614,
      "points": 2615,
      "Clinton": 2616,
      "Brit": 2617,
      "special": 2618,
      "bring": 2619,
      "previous": 2620,
      "ges": 2621,
      "bank": 2622,
      "study": 2623,
      "Aust": 2624,
      "**": 2625,
      "City": 2626,
      "band": 2627,
      "sty": 2628,
      "scre": 2629,
      "hom": 2630,
      "quick": 2631,
      "rad": 2632,
      "load": 2633,
      "stri": 2634,
      "roll": 2635,
      "someone": 2636,
      "check": 2637,
      "lier": 2638,
      "ched": 2639,
      "imate": 2640,
      "ald": 2641,
      "uni": 2642,
      "paren": 2643,
      "dest": 2644,
      "Wash": 2645,
      "Ed": 2646,
      "vo": 2647,
      "version": 2648,
      "2012": 2649,
      "AS": 2650,
      "Part": 2651,
      "AR": 2652,
      "glo": 2653,
      "else": 2654,
      "probably": 2655,
      "aged": 2656,
      "ull": 2657,
      "sus": 2658,
      "nothing": 2659,
      "box": 2660,
      "sen": 2661,
      "27": 2662,
      "dam": 2663,
      "2017": 2664,
      "BC": 2665,
      "mass": 2666,
      "comb": 2667,
      "phone": 2668,
      "service": 2669,
      "model": 2670,
      "uff": 2671,
      "equ": 2672,
      "dom": 2673,
      "Jan": 2674,
      "create": 2675,
      "decl": 2676,
      "anc": 2677,
      "protect": 2678,
      "toward": 2679,
      "due": 2680,
      "Sc": 2681,
      "rights": 2682,
      "ention": 2683,
      "signific": 2684,
      "ids": 2685,
      "artment": 2686,
      "nat": 2687,
      "target": 2688,
      "sell": 2689,
      "docu": 2690,
      "viron": 2691,
      "exper": 2692,
      "htt": 2693,
      "rote": 2694,
      "ES": 2695,
      "Washington": 2696,
      "iday": 2697,
      ".)": 2698,
      "ana": 2699,
      "third": 2700,
      "benef": 2701,
      "however": 2702,
      "Wil": 2703,
      "played": 2704,
      "rate": 2705,
      "issues": 2706,
      "share": 2707,
      "lies": 2708,
      "South": 2709,
      "26": 2710,
      "ded": 2711,
      "Fl": 2712,
      "role": 2713,
      "host": 2714,
      "anger": 2715,
      "decision": 2716,
      "wrote": 2717,
      "enn": 2718,
      "lish": 2719,
      "stat": 2720,
      "elt": 2721,
      "init": 2722,
      "result": 2723,
      "chall": 2724,
      "ham": 2725,
      "meas": 2726,
      "sound": 2727,
      "ban": 2728,
      "amoun": 2729,
      "represent": 2730,
      "begin": 2731,
      "://": 2732,
      "further": 2733,
      "utes": 2734,
      "common": 2735,
      "ging": 2736,
      "attle": 2737,
      "building": 2738,
      "white": 2739,
      "final": 2740,
      "dou": 2741,
      "28": 2742,
      "released": 2743,
      "states": 2744,
      "Med": 2745,
      "ender": 2746,
      "cand": 2747,
      "China": 2748,
      "everything": 2749,
      "conf": 2750,
      "draw": 2751,
      "whole": 2752,
      "true": 2753,
      "companies": 2754,
      "News": 2755,
      "Pe": 2756,
      "dle": 2757,
      "tit": 2758,
      "type": 2759,
      "inste": 2760,
      "character": 2761,
      "ife": 2762,
      "star": 2763,
      "matter": 2764,
      "federal": 2765,
      "seems": 2766,
      "forward": 2767,
      "Per": 2768,
      "ai": 2769,
      "pie": 2770,
      "statement": 2771,
      "pite": 2772,
      "leaders": 2773,
      "ford": 2774,
      "amer": 2775,
      "development": 2776,
      "track": 2777,
      "Mus": 2778,
      "term": 2779,
      "Sep": 2780,
      "itted": 2781,
      "word": 2782,
      "custom": 2783,
      "ively": 2784,
      "match": 2785,
      "specific": 2786,
      "Pho": 2787,
      "sto": 2788,
      "aul": 2789,
      "reme": 2790,
      "execut": 2791,
      "uation": 2792,
      "personal": 2793,
      "general": 2794,
      "began": 2795,
      "students": 2796,
      "mag": 2797,
      "saw": 2798,
      "running": 2799,
      "outside": 2800,
      "officials": 2801,
      "administ": 2802,
      "lam": 2803,
      "vision": 2804,
      "jud": 2805,
      "anti": 2806,
      "mot": 2807,
      "playing": 2808,
      "Twit": 2809,
      "medi": 2810,
      "anim": 2811,
      "asing": 2812,
      "town": 2813,
      "address": 2814,
      "office": 2815,
      "70": 2816,
      "cit": 2817,
      "els": 2818,
      "above": 2819,
      "appear": 2820,
      "ief": 2821,
      "hours": 2822,
      "ently": 2823,
      "urs": 2824,
      "himself": 2825,
      "aut": 2826,
      "provide": 2827,
      "link": 2828,
      "ctor": 2829,
      "launch": 2830,
      "inj": 2831,
      "significant": 2832,
      "continue": 2833,
      "ming": 2834,
      "itself": 2835,
      "lement": 2836,
      "became": 2837,
      "sequ": 2838,
      "lab": 2839,
      "shot": 2840,
      "drug": 2841,
      "mis": 2842,
      "vironment": 2843,
      "deli": 2844,
      "Face": 2845,
      "value": 2846,
      "themselves": 2847,
      "changes": 2848,
      "lock": 2849,
      "held": 2850,
      "29": 2851,
      "typ": 2852,
      "ports": 2853,
      "profess": 2854,
      "Ne": 2855,
      "ried": 2856,
      "App": 2857,
      "White": 2858,
      "ify": 2859,
      "countries": 2860,
      "worth": 2861,
      "wasn": 2862,
      "Cor": 2863,
      "TV": 2864,
      "simply": 2865,
      "groups": 2866,
      "angu": 2867,
      "words": 2868,
      "needed": 2869,
      "pack": 2870,
      "har": 2871,
      "Twitter": 2872,
      "espe": 2873,
      "wind": 2874,
      "evidence": 2875,
      "ior": 2876,
      "election": 2877,
      "ands": 2878,
      "release": 2879,
      "pose": 2880,
      "diffic": 2881,
      "interview": 2882,
      "itch": 2883,
      "reco": 2884,
      "vic": 2885,
      "Am": 2886,
      "ogle": 2887,
      "music": 2888,
      "function": 2889,
      "especially": 2890,
      "hor": 2891,
      "relation": 2892,
      "everyone": 2893,
      "TH": 2894,
      "needs": 2895,
      "tru": 2896,
      "energy": 2897,
      "crim": 2898,
      "shows": 2899,
      "expected": 2900,
      "AM": 2901,
      "ades": 2902,
      "ctions": 2903,
      "code": 2904,
      "continu": 2905,
      "billion": 2906,
      "approach": 2907,
      "vote": 2908,
      "include": 2909,
      "redu": 2910,
      "log": 2911,
      "below": 2912,
      "stay": 2913,
      "ilt": 2914,
      "pretty": 2915,
      "quar": 2916,
      "tee": 2917,
      "commit": 2918,
      "quite": 2919,
      "super": 2920,
      "AC": 2921,
      "Em": 2922,
      "sense": 2923,
      "II": 2924,
      "ends": 2925,
      "rac": 2926,
      "thod": 2927,
      "unity": 2928,
      "economic": 2929,
      "necess": 2930,
      "AP": 2931,
      "industry": 2932,
      "ournal": 2933,
      "div": 2934,
      "treat": 2935,
      "deter": 2936,
      "push": 2937,
      "candid": 2938,
      "accept": 2939,
      "hol": 2940,
      "lost": 2941,
      "arr": 2942,
      "nation": 2943,
      "gir": 2944,
      "Facebook": 2945,
      "March": 2946,
      "educ": 2947,
      "lower": 2948,
      "strate": 2949,
      "quality": 2950,
      "alleg": 2951,
      "Oc": 2952,
      "scri": 2953,
      "cir": 2954,
      "pain": 2955,
      "Here": 2956,
      "cred": 2957,
      "instead": 2958,
      "review": 2959,
      "believ": 2960,
      "sess": 2961,
      "More": 2962,
      "ery": 2963,
      "2011": 2964,
      "iding": 2965,
      "Su": 2966,
      "total": 2967,
      "core": 2968,
      "relig": 2969,
      "forman": 2970,
      "Par": 2971,
      "respect": 2972,
      "ples": 2973,
      "Aug": 2974,
      "urch": 2975,
      "Ab": 2976,
      "Google": 2977,
      "vari": 2978,
      "AL": 2979,
      "period": 2980,
      "spir": 2981,
      "Red": 2982,
      "serious": 2983,
      "phys": 2984,
      "According": 2985,
      "popular": 2986,
      "Qu": 2987,
      "San": 2988,
      "soon": 2989,
      "recently": 2990,
      "sw": 2991,
      "ament": 2992,
      "June": 2993,
      "opport": 2994,
      "Ear": 2995,
      "weeks": 2996,
      "ners": 2997,
      "oud": 2998,
      "Republican": 2999,
      "ino": 3000,
      "uel": 3001,
      "joy": 3002,
      "longer": 3003,
      "moved": 3004,
      "Lo": 3005,
      "terror": 3006,
      "shoot": 3007,
      "emp": 3008,
      "35": 3009,
      "Of": 3010,
      "Syri": 3011,
      "object": 3012,
      "favor": 3013,
      "Des": 3014,
      "Pal": 3015,
      "==": 3016,
      "risk": 3017,
      "finan": 3018,
      "moment": 3019,
      "Department": 3020,
      "online": 3021,
      "wrong": 3022,
      "prim": 3023,
      "God": 3024,
      "cil": 3025,
      "sed": 3026,
      "Apr": 3027,
      "Gre": 3028,
      "Photo": 3029,
      "duct": 3030,
      "tro": 3031,
      "article": 3032,
      "Cong": 3033,
      "____": 3034,
      "ung": 3035,
      "rup": 3036,
      "higher": 3037,
      "198": 3038,
      "Off": 3039,
      "page": 3040,
      "ption": 3041,
      "Sat": 3042,
      "dead": 3043,
      "July": 3044,
      "goal": 3045,
      "ox": 3046,
      "actions": 3047,
      "compl": 3048,
      "potential": 3049,
      "Fir": 3050,
      "flo": 3051,
      "rew": 3052,
      "friends": 3053,
      "famil": 3054,
      "surpr": 3055,
      "base": 3056,
      "gas": 3057,
      "Sm": 3058,
      "rown": 3059,
      "ember": 3060,
      "demand": 3061,
      "Act": 3062,
      "applic": 3063,
      "comput": 3064,
      "killed": 3065,
      "express": 3066,
      "Her": 3067,
      "services": 3068,
      "lin": 3069,
      "ping": 3070,
      "results": 3071,
      "sha": 3072,
      "pan": 3073,
      "scient": 3074,
      "Even": 3075,
      "created": 3076,
      "bert": 3077,
      "Hill": 3078,
      "OR": 3079,
      "coup": 3080,
      "tou": 3081,
      "via": 3082,
      "langu": 3083,
      "refer": 3084,
      "account": 3085,
      "attempt": 3086,
      "2010": 3087,
      "sold": 3088,
      "EN": 3089,
      "Congress": 3090,
      "content": 3091,
      "protest": 3092,
      "Austral": 3093,
      "minutes": 3094,
      "heart": 3095,
      "moder": 3096,
      "performan": 3097,
      "anyone": 3098,
      "teach": 3099,
      "difficult": 3100,
      "covered": 3101,
      "contract": 3102,
      "private": 3103,
      "easy": 3104,
      "hood": 3105,
      "ilities": 3106,
      "source": 3107,
      "OS": 3108,
      "lex": 3109,
      "Friday": 3110,
      "ze": 3111,
      "technology": 3112,
      "speak": 3113,
      "reve": 3114,
      "Americans": 3115,
      "ugg": 3116,
      "environment": 3117,
      "earlier": 3118,
      "haps": 3119,
      "comment": 3120,
      "Char": 3121,
      "opt": 3122,
      "received": 3123,
      "fast": 3124,
      "April": 3125,
      "Cour": 3126,
      "problems": 3127,
      "David": 3128,
      "fair": 3129,
      "announced": 3130,
      "omb": 3131,
      "estab": 3132,
      "pred": 3133,
      "ken": 3134,
      "apan": 3135,
      "First": 3136,
      "gets": 3137,
      "coach": 3138,
      "Post": 3139,
      "amount": 3140,
      "firm": 3141,
      "increase": 3142,
      "ij": 3143,
      "sat": 3144,
      "45": 3145,
      "ows": 3146,
      "Cr": 3147,
      "cannot": 3148,
      "responsi": 3149,
      "na": 3150,
      "civil": 3151,
      "Russia": 3152,
      "original": 3153,
      "contribut": 3154,
      "impact": 3155,
      "questions": 3156,
      "involved": 3157,
      "users": 3158,
      "cases": 3159,
      "Israel": 3160,
      "alter": 3161,
      "mater": 3162,
      "club": 3163,
      "fill": 3164,
      "Japan": 3165,
      "Donald": 3166,
      "hope": 3167,
      "heav": 3168,
      "ites": 3169,
      "Paul": 3170,
      "average": 3171,
      "nearly": 3172,
      "ometimes": 3173,
      "East": 3174,
      "intro": 3175,
      "Tues": 3176,
      "exact": 3177,
      "deep": 3178,
      "vict": 3179,
      "worked": 3180,
      "Geor": 3181,
      "response": 3182,
      "living": 3183,
      "Monday": 3184,
      "workers": 3185,
      "print": 3186,
      "IC": 3187,
      "itten": 3188,
      "counter": 3189,
      "spect": 3190,
      "broad": 3191,
      "global": 3192,
      "Te": 3193,
      "verse": 3194,
      "published": 3195,
      "Tuesday": 3196,
      "leave": 3197,
      "answer": 3198,
      "isl": 3199,
      "van": 3200,
      "inside": 3201,
      "Mi": 3202,
      "Islam": 3203,
      "member": 3204,
      "Sch": 3205,
      "ote": 3206,
      "cli": 3207,
      "lying": 3208,
      "bon": 3209,
      "lack": 3210,
      "pet": 3211,
      "collect": 3212,
      "turned": 3213,
      "regard": 3214,
      "arrest": 3215,
      "associ": 3216,
      "fans": 3217,
      "request": 3218,
      "Spe": 3219,
      "dig": 3220,
      "sort": 3221,
      "Stre": 3222,
      "Wed": 3223,
      "director": 3224,
      "fem": 3225,
      "sem": 3226,
      "oil": 3227,
      "squ": 3228,
      "emer": 3229,
      "subject": 3230,
      "staff": 3231,
      "Get": 3232,
      "price": 3233,
      "reports": 3234,
      "takes": 3235,
      "immedi": 3236,
      "decided": 3237,
      "capital": 3238,
      "aging": 3239,
      "chance": 3240,
      "ring": 3241,
      "weap": 3242,
      "lines": 3243,
      "screen": 3244,
      "terms": 3245,
      "pict": 3246,
      "email": 3247,
      "thern": 3248,
      "financial": 3249,
      "size": 3250,
      "indic": 3251,
      "wood": 3252,
      "built": 3253,
      "rock": 3254,
      "vertis": 3255,
      "January": 3256,
      "izing": 3257,
      "related": 3258,
      "tember": 3259,
      "El": 3260,
      "lied": 3261,
      "September": 3262,
      "Nove": 3263,
      "90": 3264,
      "mother": 3265,
      "ica": 3266,
      "simple": 3267,
      "production": 3268,
      "Pet": 3269,
      "influ": 3270,
      "nia": 3271,
      "IT": 3272,
      "Phil": 3273,
      "foreign": 3274,
      "buy": 3275,
      "west": 3276,
      "currently": 3277,
      "aud": 3278,
      "\".": 3279,
      "onto": 3280,
      "dol": 3281,
      "tre": 3282,
      "aving": 3283,
      "goes": 3284,
      "Black": 3285,
      "race": 3286,
      "perform": 3287,
      "style": 3288,
      "gave": 3289,
      "recogn": 3290,
      "hot": 3291,
      "arri": 3292,
      "November": 3293,
      "Dis": 3294,
      "audi": 3295,
      "whose": 3296,
      "itor": 3297,
      "father": 3298,
      "tor": 3299,
      "require": 3300,
      ");": 3301,
      "Mark": 3302,
      "Then": 3303,
      "tool": 3304,
      "engine": 3305,
      "ffer": 3306,
      "happened": 3307,
      "text": 3308,
      "99": 3309,
      "method": 3310,
      "From": 3311,
      "material": 3312,
      "clus": 3313,
      "Afr": 3314,
      "European": 3315,
      "atives": 3316,
      "performance": 3317,
      "Ag": 3318,
      "bel": 3319,
      "lives": 3320,
      "particip": 3321,
      "rain": 3322,
      "tober": 3323,
      "path": 3324,
      "loss": 3325,
      "tele": 3326,
      "August": 3327,
      "nu": 3328,
      "ID": 3329,
      "lay": 3330,
      "Canada": 3331,
      "Wednes": 3332,
      "situation": 3333,
      "trade": 3334,
      "felt": 3335,
      "avo": 3336,
      "grad": 3337,
      "Thurs": 3338,
      "introdu": 3339,
      "meeting": 3340,
      "Cali": 3341,
      "Court": 3342,
      "October": 3343,
      "speed": 3344,
      "ED": 3345,
      "plans": 3346,
      "events": 3347,
      "heard": 3348,
      "Wednesday": 3349,
      "ival": 3350,
      "possib": 3351,
      "huge": 3352,
      "hi": 3353,
      "Russian": 3354,
      "cup": 3355,
      "allowed": 3356,
      "33": 3357,
      "image": 3358,
      "walk": 3359,
      "\",": 3360,
      "Thursday": 3361,
      "teams": 3362,
      "fell": 3363,
      "bot": 3364,
      "seven": 3365,
      "areas": 3366,
      "ny": 3367,
      "career": 3368,
      "Our": 3369,
      "stant": 3370,
      "UK": 3371,
      "Califor": 3372,
      "couple": 3373,
      "affect": 3374,
      "ift": 3375,
      "Every": 3376,
      "rid": 3377,
      "corpor": 3378,
      "istic": 3379,
      "thous": 3380,
      "Why": 3381,
      "Po": 3382,
      "struction": 3383,
      "British": 3384,
      "mention": 3385,
      "inv": 3386,
      "letter": 3387,
      "victim": 3388,
      "improve": 3389,
      "safe": 3390,
      "numbers": 3391,
      "Park": 3392,
      "card": 3393,
      "Cap": 3394,
      "connect": 3395,
      "erson": 3396,
      "Sunday": 3397,
      "bud": 3398,
      "quickly": 3399,
      "wo": 3400,
      "ases": 3401,
      "secret": 3402,
      "havi": 3403,
      "gs": 3404,
      "Wal": 3405,
      "Let": 3406,
      "Well": 3407,
      "document": 3408,
      "aily": 3409,
      "atory": 3410,
      "aled": 3411,
      "ises": 3412,
      "travel": 3413,
      "forces": 3414,
      "occur": 3415,
      "economy": 3416,
      "website": 3417,
      "Up": 3418,
      "ky": 3419,
      "separ": 3420,
      "leading": 3421,
      "user": 3422,
      "written": 3423,
      "California": 3424,
      "spent": 3425,
      "Fin": 3426,
      "--------": 3427,
      "demon": 3428,
      "ani": 3429,
      "2008": 3430,
      "repe": 3431,
      "regular": 3432,
      "Star": 3433,
      "morning": 3434,
      "perfect": 3435,
      "Hol": 3436,
      "enjoy": 3437,
      "OP": 3438,
      "”.": 3439,
      "cul": 3440,
      "conduct": 3441,
      "neigh": 3442,
      "paid": 3443,
      "Dece": 3444,
      "197": 3445,
      "wants": 3446,
      "32": 3447,
      "growth": 3448,
      "ological": 3449,
      "ops": 3450,
      "included": 3451,
      "AD": 3452,
      "table": 3453,
      "knew": 3454,
      "rect": 3455,
      "prison": 3456,
      "population": 3457,
      "range": 3458,
      "December": 3459,
      "iment": 3460,
      "movement": 3461,
      "respond": 3462,
      "igence": 3463,
      "weet": 3464,
      "tried": 3465,
      "2009": 3466,
      "anch": 3467,
      "agre": 3468,
      "http": 3469,
      "prevent": 3470,
      "legisl": 3471,
      "?”": 3472,
      "natural": 3473,
      "exc": 3474,
      "Tex": 3475,
      "Muslim": 3476,
      "progress": 3477,
      "olution": 3478,
      "network": 3479,
      "focus": 3480,
      "King": 3481,
      "looks": 3482,
      "suit": 3483,
      "Jew": 3484,
      "Lon": 3485,
      "language": 3486,
      "fix": 3487,
      "veh": 3488,
      "Kore": 3489,
      "training": 3490,
      "India": 3491,
      "various": 3492,
      "leader": 3493,
      "500": 3494,
      "][": 3495,
      "bul": 3496,
      "dy": 3497,
      "attention": 3498,
      "reading": 3499,
      "31": 3500,
      "ico": 3501,
      "aur": 3502,
      "contact": 3503,
      "ering": 3504,
      "visit": 3505,
      "song": 3506,
      "weight": 3507,
      "cing": 3508,
      "Sup": 3509,
      "Gener": 3510,
      "aming": 3511,
      "exam": 3512,
      "mob": 3513,
      "tour": 3514,
      "behavi": 3515,
      "brought": 3516,
      "sym": 3517,
      "labor": 3518,
      "hael": 3519,
      "independ": 3520,
      "Senate": 3521,
      "Ang": 3522,
      "ceed": 3523,
      "citiz": 3524,
      "named": 3525,
      "coin": 3526,
      "mach": 3527,
      "Cent": 3528,
      "Times": 3529,
      "systems": 3530,
      "Rom": 3531,
      "Iran": 3532,
      "upon": 3533,
      "Street": 3534,
      "stor": 3535,
      "undred": 3536,
      "Ben": 3537,
      "stead": 3538,
      "slow": 3539,
      "tur": 3540,
      "sexual": 3541,
      "changed": 3542,
      "secut": 3543,
      "sil": 3544,
      "science": 3545,
      "rules": 3546,
      "sens": 3547,
      "giving": 3548,
      "Police": 3549,
      "Most": 3550,
      "arily": 3551,
      "ires": 3552,
      "Pat": 3553,
      "yond": 3554,
      "Center": 3555,
      "parts": 3556,
      "paper": 3557,
      "Play": 3558,
      "talking": 3559,
      "aves": 3560,
      "Sand": 3561,
      "ients": 3562,
      "communic": 3563,
      "36": 3564,
      "Read": 3565,
      "fit": 3566,
      "ST": 3567,
      "door": 3568,
      "latest": 3569,
      "Satur": 3570,
      "ordin": 3571,
      "liber": 3572,
      "parents": 3573,
      "ties": 3574,
      "plat": 3575,
      "multip": 3576,
      "conserv": 3577,
      "considered": 3578,
      "bir": 3579,
      "moving": 3580,
      "Party": 3581,
      "fan": 3582,
      "Tur": 3583,
      "medical": 3584,
      "Ira": 3585,
      "strugg": 3586,
      "forms": 3587,
      "anks": 3588,
      "center": 3589,
      "placed": 3590,
      "iction": 3591,
      "craft": 3592,
      "ays": 3593,
      "learn": 3594,
      "hear": 3595,
      "Che": 3596,
      "features": 3597,
      "sn": 3598,
      "ledge": 3599,
      "Sw": 3600,
      "cru": 3601,
      "immig": 3602,
      "extreme": 3603,
      "park": 3604,
      "roy": 3605,
      "except": 3606,
      "Oh": 3607,
      "County": 3608,
      "depart": 3609,
      "addition": 3610,
      "hands": 3611,
      "regul": 3612,
      "Lu": 3613,
      "Iraq": 3614,
      "quarter": 3615,
      "employe": 3616,
      "install": 3617,
      "writing": 3618,
      "remember": 3619,
      "stitution": 3620,
      "mill": 3621,
      "icles": 3622,
      "defense": 3623,
      "looked": 3624,
      "prior": 3625,
      "ously": 3626,
      "calls": 3627,
      "Michael": 3628,
      "increasing": 3629,
      "levels": 3630,
      "Saturday": 3631,
      "dollar": 3632,
      "critic": 3633,
      "consist": 3634,
      "wise": 3635,
      "fa": 3636,
      "FL": 3637,
      "incident": 3638,
      "map": 3639,
      "active": 3640,
      "London": 3641,
      "jobs": 3642,
      "FC": 3643,
      "chief": 3644,
      "suffer": 3645,
      "modern": 3646,
      "imag": 3647,
      "file": 3648,
      "cross": 3649,
      "Mor": 3650,
      "guy": 3651,
      "zz": 3652,
      "journal": 3653,
      "mak": 3654,
      "34": 3655,
      "pic": 3656,
      "analys": 3657,
      "mist": 3658,
      "ape": 3659,
      "bol": 3660,
      "completely": 3661,
      "write": 3662,
      "poor": 3663,
      "histor": 3664,
      "tware": 3665,
      "rench": 3666,
      "majority": 3667,
      "violence": 3668,
      "message": 3669,
      "enced": 3670,
      "claims": 3671,
      "Many": 3672,
      "Since": 3673,
      "rict": 3674,
      "Over": 3675,
      "speech": 3676,
      "spokes": 3677,
      "ension": 3678,
      "People": 3679,
      "attacks": 3680,
      "despite": 3681,
      "wall": 3682,
      "Air": 3683,
      "James": 3684,
      "piece": 3685,
      "resour": 3686,
      "intell": 3687,
      "zon": 3688,
      "alone": 3689,
      "mine": 3690,
      "Val": 3691,
      "Lab": 3692,
      "Febr": 3693,
      "usually": 3694,
      "Bro": 3695,
      "bing": 3696,
      "February": 3697,
      "rap": 3698,
      "Last": 3699,
      "kept": 3700,
      "effort": 3701,
      "hous": 3702,
      "carry": 3703,
      "sett": 3704,
      "surve": 3705,
      "UN": 3706,
      "Willi": 3707,
      "obvious": 3708,
      "Ma": 3709,
      "interesting": 3710,
      "pped": 3711,
      "middle": 3712,
      "society": 3713,
      "spr": 3714,
      "biggest": 3715,
      "37": 3716,
      "although": 3717,
      "xim": 3718,
      "hundred": 3719,
      "born": 3720,
      "smo": 3721,
      "climate": 3722,
      "ses": 3723,
      "native": 3724,
      "mur": 3725,
      "practice": 3726,
      "sometimes": 3727,
      "eight": 3728,
      "growing": 3729,
      "Ber": 3730,
      "ampion": 3731,
      "Jack": 3732,
      "described": 3733,
      "required": 3734,
      "soft": 3735,
      "anned": 3736,
      "reedom": 3737,
      "century": 3738,
      "note": 3739,
      "stuff": 3740,
      "opportunity": 3741,
      "products": 3742,
      "served": 3743,
      "Net": 3744,
      "books": 3745,
      "assist": 3746,
      "rout": 3747,
      "38": 3748,
      "entially": 3749,
      "pul": 3750,
      "thinking": 3751,
      "exactly": 3752,
      "psy": 3753,
      "Republicans": 3754,
      "movie": 3755,
      "limited": 3756,
      "spot": 3757,
      "Advertis": 3758,
      "Mart": 3759,
      "danger": 3760,
      "figure": 3761,
      "BI": 3762,
      "ican": 3763,
      "surv": 3764,
      "iet": 3765,
      "stories": 3766,
      "aries": 3767,
      "rich": 3768,
      "culture": 3769,
      "stage": 3770,
      "store": 3771,
      "certainly": 3772,
      "officers": 3773,
      "Texas": 3774,
      "remain": 3775,
      "MP": 3776,
      "wonder": 3777,
      "necessary": 3778,
      "Fed": 3779,
      "extra": 3780,
      "item": 3781,
      "Ke": 3782,
      "cry": 3783,
      "inese": 3784,
      "starting": 3785,
      "boy": 3786,
      "continued": 3787,
      "deliver": 3788,
      "League": 3789,
      "summer": 3790,
      "inci": 3791,
      "Str": 3792,
      "forced": 3793,
      "ening": 3794,
      "Rich": 3795,
      "option": 3796,
      "finally": 3797,
      "vice": 3798,
      "ries": 3799,
      "Tor": 3800,
      "thus": 3801,
      "Bill": 3802,
      "ishing": 3803,
      "standard": 3804,
      "education": 3805,
      "Democratic": 3806,
      "www": 3807,
      "provided": 3808,
      "forts": 3809,
      "touch": 3810,
      "camer": 3811,
      "zer": 3812,
      "laws": 3813,
      "details": 3814,
      "comments": 3815,
      "ode": 3816,
      "Apple": 3817,
      "mic": 3818,
      "showed": 3819,
      "spital": 3820,
      "Chinese": 3821,
      "crow": 3822,
      "select": 3823,
      "istan": 3824,
      "utions": 3825,
      "income": 3826,
      "ships": 3827,
      "ert": 3828,
      "196": 3829,
      "region": 3830,
      "48": 3831,
      "ened": 3832,
      "rit": 3833,
      "EC": 3834,
      "scene": 3835,
      "hur": 3836,
      "gone": 3837,
      "correct": 3838,
      "appeared": 3839,
      "remains": 3840,
      "perhaps": 3841,
      "cele": 3842,
      "sle": 3843,
      "damage": 3844,
      "wel": 3845,
      "costs": 3846,
      "saf": 3847,
      "challeng": 3848,
      "lic": 3849,
      "maintain": 3850,
      "wife": 3851,
      "stra": 3852,
      "Image": 3853,
      "purch": 3854,
      "mat": 3855,
      "happy": 3856,
      "neg": 3857,
      "cris": 3858,
      "lie": 3859,
      "PC": 3860,
      "lap": 3861,
      "choice": 3862,
      "appoint": 3863,
      "Day": 3864,
      "brain": 3865,
      "multiple": 3866,
      "bes": 3867,
      "Bu": 3868,
      "rep": 3869,
      "arent": 3870,
      "join": 3871,
      "Because": 3872,
      "Indian": 3873,
      "High": 3874,
      "died": 3875,
      "ker": 3876,
      "nom": 3877,
      "passed": 3878,
      "effects": 3879,
      "voters": 3880,
      "ights": 3881,
      "wouldn": 3882,
      "ida": 3883,
      "Green": 3884,
      "Like": 3885,
      "reality": 3886,
      "implement": 3887,
      "za": 3888,
      "44": 3889,
      "umb": 3890,
      "tin": 3891,
      "ification": 3892,
      "enge": 3893,
      "increased": 3894,
      "capt": 3895,
      "kids": 3896,
      "girl": 3897,
      "sets": 3898,
      "beyond": 3899,
      "throw": 3900,
      "meaning": 3901,
      "efforts": 3902,
      "agon": 3903,
      "claimed": 3904,
      "designed": 3905,
      "football": 3906,
      "ables": 3907,
      "guys": 3908,
      "inte": 3909,
      "ET": 3910,
      "Ho": 3911,
      "idge": 3912,
      "directly": 3913,
      "complex": 3914,
      "Au": 3915,
      "celebr": 3916,
      "central": 3917,
      "rates": 3918,
      "standing": 3919,
      "plant": 3920,
      "student": 3921,
      "inde": 3922,
      "clean": 3923,
      "reli": 3924,
      "Associ": 3925,
      "includes": 3926,
      "towards": 3927,
      "drive": 3928,
      "epis": 3929,
      "agency": 3930,
      "(@": 3931,
      "couldn": 3932,
      "blood": 3933,
      "Tom": 3934,
      "Although": 3935,
      "safety": 3936,
      "title": 3937,
      "PS": 3938,
      "skill": 3939,
      "feed": 3940,
      "charge": 3941,
      "Tod": 3942,
      "Wind": 3943,
      "Sci": 3944,
      "appears": 3945,
      "immediately": 3946,
      "Democrats": 3947,
      "gar": 3948,
      "throughout": 3949,
      "additional": 3950,
      "opin": 3951,
      "Ham": 3952,
      "software": 3953,
      "pressure": 3954,
      "Bre": 3955,
      "recomm": 3956,
      "49": 3957,
      "relative": 3958,
      "ahead": 3959,
      "Super": 3960,
      "religious": 3961,
      "EU": 3962,
      "Bel": 3963,
      "Gover": 3964,
      "reng": 3965,
      "CO": 3966,
      "Minister": 3967,
      "Mac": 3968,
      "French": 3969,
      "antic": 3970,
      "league": 3971,
      "consum": 3972,
      "battle": 3973,
      "maybe": 3974,
      "debate": 3975,
      "Reg": 3976,
      "English": 3977,
      "distribut": 3978,
      "beginning": 3979,
      "suspect": 3980,
      "largest": 3981,
      "75": 3982,
      "CE": 3983,
      "advant": 3984,
      "thousands": 3985,
      "hair": 3986,
      "aughter": 3987,
      "lease": 3988,
      "39": 3989,
      "officer": 3990,
      "property": 3991,
      "sites": 3992,
      "George": 3993,
      "flow": 3994,
      "Def": 3995,
      "stream": 3996,
      "budget": 3997,
      "agree": 3998,
      "positive": 3999,
      "airs": 4000,
      "era": 4001,
      "computer": 4002,
      "ware": 4003,
      "uk": 4004,
      "estim": 4005,
      "receive": 4006,
      "gender": 4007,
      "command": 4008,
      "resh": 4009,
      "hab": 4010,
      "atever": 4011,
      "mitted": 4012,
      "shop": 4013,
      "copy": 4014,
      "dark": 4015,
      "trust": 4016,
      "tic": 4017,
      "venue": 4018,
      "analysis": 4019,
      "normal": 4020,
      "bri": 4021,
      "color": 4022,
      "bum": 4023,
      "alleged": 4024,
      "German": 4025,
      "nuclear": 4026,
      "nature": 4027,
      "device": 4028,
      "adem": 4029,
      "iff": 4030,
      "55": 4031,
      "blog": 4032,
      "helped": 4033,
      "ope": 4034,
      "conditions": 4035,
      "aint": 4036,
      "setting": 4037,
      "owners": 4038,
      "stock": 4039,
      "ov": 4040,
      "unique": 4041,
      "failed": 4042,
      "PM": 4043,
      "iers": 4044,
      "scr": 4045,
      "syn": 4046,
      "strict": 4047,
      "OT": 4048,
      "encies": 4049,
      "instit": 4050,
      "Mex": 4051,
      "General": 4052,
      "encour": 4053,
      "Thom": 4054,
      "Trans": 4055,
      "difference": 4056,
      "signed": 4057,
      "reasons": 4058,
      "stic": 4059,
      "berg": 4060,
      "fear": 4061,
      "mental": 4062,
      "insur": 4063,
      "characters": 4064,
      "vention": 4065,
      "myself": 4066,
      "ield": 4067,
      "sched": 4068,
      "iver": 4069,
      "shown": 4070,
      "During": 4071,
      "hest": 4072,
      "compared": 4073,
      "Smith": 4074,
      "Yes": 4075,
      "powerful": 4076,
      "conference": 4077,
      "section": 4078,
      "Syria": 4079,
      "iew": 4080,
      "allows": 4081,
      "Mid": 4082,
      "college": 4083,
      "iles": 4084,
      "teen": 4085,
      "sea": 4086,
      "eyes": 4087,
      "thers": 4088,
      "mix": 4089,
      "hero": 4090,
      "prep": 4091,
      "frequ": 4092,
      "aly": 4093,
      "controll": 4094,
      "Other": 4095,
      "origin": 4096,
      "places": 4097,
      "beat": 4098,
      "spending": 4099,
      "Christian": 4100,
      "successful": 4101,
      "?\"": 4102,
      "confir": 4103,
      "Jer": 4104,
      "cool": 4105,
      "fol": 4106,
      "smart": 4107,
      "poll": 4108,
      "Sal": 4109,
      "ari": 4110,
      "crime": 4111,
      "peace": 4112,
      "convers": 4113,
      "candidate": 4114,
      "Your": 4115,
      "solute": 4116,
      "ultim": 4117,
      "upd": 4118,
      "stitute": 4119,
      "Two": 4120,
      "asy": 4121,
      "Mer": 4122,
      "physical": 4123,
      "Mag": 4124,
      "executive": 4125,
      "avoid": 4126,
      "schools": 4127,
      "streng": 4128,
      "rank": 4129,
      "IA": 4130,
      "developed": 4131,
      "unk": 4132,
      "bound": 4133,
      "Australia": 4134,
      "acqu": 4135,
      "earch": 4136,
      "ston": 4137,
      "eventually": 4138,
      "anced": 4139,
      "names": 4140,
      "prem": 4141,
      "confl": 4142,
      "ufact": 4143,
      "drink": 4144,
      "politics": 4145,
      "treatment": 4146,
      "feature": 4147,
      "propos": 4148,
      "47": 4149,
      "analy": 4150,
      "princi": 4151,
      "counts": 4152,
      "wing": 4153,
      "School": 4154,
      "promot": 4155,
      "criminal": 4156,
      "Germany": 4157,
      "Add": 4158,
      "operation": 4159,
      "Bay": 4160,
      "followed": 4161,
      "Gold": 4162,
      "cise": 4163,
      "rise": 4164,
      "Angel": 4165,
      "willing": 4166,
      "truth": 4167,
      "2007": 4168,
      "lose": 4169,
      "IP": 4170,
      "nice": 4171,
      "meant": 4172,
      "cture": 4173,
      "families": 4174,
      "Arab": 4175,
      "contr": 4176,
      "die": 4177,
      "inno": 4178,
      "easily": 4179,
      "astic": 4180,
      "gives": 4181,
      "detail": 4182,
      "Earth": 4183,
      "yourself": 4184,
      "impress": 4185,
      "ux": 4186,
      "assa": 4187,
      "....": 4188,
      "credit": 4189,
      "station": 4190,
      "Mal": 4191,
      "omen": 4192,
      "weapons": 4193,
      "Art": 4194,
      "crisis": 4195,
      "eth": 4196,
      "eye": 4197,
      "hon": 4198,
      "activity": 4199,
      "Law": 4200,
      "Ano": 4201,
      "scale": 4202,
      "rule": 4203,
      "determin": 4204,
      "Alex": 4205,
      "fighting": 4206,
      "Flor": 4207,
      "overall": 4208,
      "display": 4209,
      "ideas": 4210,
      "kick": 4211,
      "Also": 4212,
      "chan": 4213,
      "Ter": 4214,
      "Union": 4215,
      "cat": 4216,
      "liter": 4217,
      "SA": 4218,
      "La": 4219,
      "senior": 4220,
      "CH": 4221,
      "):": 4222,
      "minim": 4223,
      "green": 4224,
      "status": 4225,
      "aling": 4226,
      "Cal": 4227,
      "integr": 4228,
      "Follow": 4229,
      "mun": 4230,
      "Another": 4231,
      "Ry": 4232,
      "Scott": 4233,
      "decades": 4234,
      "lands": 4235,
      "cities": 4236,
      "murder": 4237,
      "send": 4238,
      "Rev": 4239,
      "46": 4240,
      "Vir": 4241,
      "ission": 4242,
      "beaut": 4243,
      "democr": 4244,
      "Ty": 4245,
      "ado": 4246,
      "projects": 4247,
      "brand": 4248,
      "lif": 4249,
      "fortun": 4250,
      "autom": 4251,
      "sou": 4252,
      "doub": 4253,
      "concept": 4254,
      "save": 4255,
      "ease": 4256,
      "sales": 4257,
      "lection": 4258,
      "comfort": 4259,
      "benefits": 4260,
      "Stud": 4261,
      "calling": 4262,
      "apparent": 4263,
      "iced": 4264,
      "expand": 4265,
      "noted": 4266,
      "wards": 4267,
      "Council": 4268,
      "commer": 4269,
      "session": 4270,
      "Internet": 4271,
      "funding": 4272,
      "Hillary": 4273,
      "straight": 4274,
      "minor": 4275,
      "bomb": 4276,
      "bab": 4277,
      "previously": 4278,
      "individuals": 4279,
      "highly": 4280,
      "riage": 4281,
      "wait": 4282,
      "continues": 4283,
      "goals": 4284,
      "task": 4285,
      "apped": 4286,
      "manager": 4287,
      "psych": 4288,
      "primary": 4289,
      "ateg": 4290,
      "challenge": 4291,
      "org": 4292,
      "Rob": 4293,
      "larger": 4294,
      "ivity": 4295,
      "clearly": 4296,
      "sec": 4297,
      "itely": 4298,
      "sco": 4299,
      "ville": 4300,
      "aware": 4301,
      "measure": 4302,
      "emot": 4303,
      "scen": 4304,
      "knowledge": 4305,
      "birth": 4306,
      "adding": 4307,
      "customers": 4308,
      "grand": 4309,
      "cum": 4310,
      "Any": 4311,
      "seeing": 4312,
      "serve": 4313,
      "winning": 4314,
      "asc": 4315,
      "church": 4316,
      "feet": 4317,
      "seemed": 4318,
      "Press": 4319,
      "moun": 4320,
      "Sha": 4321,
      "PR": 4322,
      "voice": 4323,
      "Sam": 4324,
      "phen": 4325,
      "agreement": 4326,
      "reached": 4327,
      "programs": 4328,
      "Once": 4329,
      "favorite": 4330,
      "greater": 4331,
      "Bit": 4332,
      "Big": 4333,
      "resources": 4334,
      "manufact": 4335,
      "aste": 4336,
      "shooting": 4337,
      "Who": 4338,
      "traditional": 4339,
      "Are": 4340,
      "ube": 4341,
      "Gl": 4342,
      "Chic": 4343,
      "yn": 4344,
      "studies": 4345,
      "options": 4346,
      "female": 4347,
      "enem": 4348,
      "closed": 4349,
      "ality": 4350,
      "IL": 4351,
      "revol": 4352,
      "fee": 4353,
      "establish": 4354,
      "Sim": 4355,
      "stick": 4356,
      "rare": 4357,
      "caused": 4358,
      "predict": 4359,
      "See": 4360,
      "virt": 4361,
      "absolute": 4362,
      "tick": 4363,
      "fine": 4364,
      "AA": 4365,
      "Met": 4366,
      "demonstr": 4367,
      "stood": 4368,
      "border": 4369,
      "chair": 4370,
      "gold": 4371,
      "reflect": 4372,
      "goti": 4373,
      "Micro": 4374,
      "oph": 4375,
      "knows": 4376,
      "isions": 4377,
      "sor": 4378,
      "CN": 4379,
      "sources": 4380,
      "Florida": 4381,
      "England": 4382,
      "critical": 4383,
      "organiz": 4384,
      "Mil": 4385,
      "drop": 4386,
      "spend": 4387,
      "creating": 4388,
      "suppor": 4389,
      "catch": 4390,
      "produced": 4391,
      "iving": 4392,
      "dre": 4393,
      "Sub": 4394,
      "dog": 4395,
      "ota": 4396,
      "bs": 4397,
      "Chicago": 4398,
      "shut": 4399,
      "Health": 4400,
      "freedom": 4401,
      "frame": 4402,
      "Lou": 4403,
      "edge": 4404,
      "trou": 4405,
      "Cur": 4406,
      "charges": 4407,
      "enty": 4408,
      "sey": 4409,
      "mostly": 4410,
      "65": 4411,
      "Port": 4412,
      "Ken": 4413,
      "ING": 4414,
      "jump": 4415,
      "witch": 4416,
      "ae": 4417,
      "EL": 4418,
      "France": 4419,
      "asking": 4420,
      "basic": 4421,
      "BA": 4422,
      "orders": 4423,
      "Under": 4424,
      "raised": 4425,
      "usion": 4426,
      "ram": 4427,
      "researchers": 4428,
      "ength": 4429,
      "hospital": 4430,
      "roid": 4431,
      "inated": 4432,
      "Mike": 4433,
      "prices": 4434,
      "supposed": 4435,
      "ked": 4436,
      "employees": 4437,
      "street": 4438,
      "effic": 4439,
      "policies": 4440,
      "posted": 4441,
      "ante": 4442,
      "arms": 4443,
      "Palest": 4444,
      "negoti": 4445,
      "types": 4446,
      "da": 4447,
      "behavior": 4448,
      "Those": 4449,
      "produce": 4450,
      "Instead": 4451,
      "”,": 4452,
      "album": 4453,
      "happens": 4454,
      "haven": 4455,
      "actual": 4456,
      "fal": 4457,
      "repor": 4458,
      "concerns": 4459,
      "pool": 4460,
      "minister": 4461,
      "etc": 4462,
      "wealth": 4463,
      "rant": 4464,
      "responsible": 4465,
      "cars": 4466,
      "rating": 4467,
      "GB": 4468,
      "Wall": 4469,
      "64": 4470,
      "temper": 4471,
      "clud": 4472,
      "Game": 4473,
      "uana": 4474,
      "values": 4475,
      "Today": 4476,
      "PA": 4477,
      "enforce": 4478,
      "leaving": 4479,
      ".’": 4480,
      "iled": 4481,
      "ensure": 4482,
      "neighbor": 4483,
      "application": 4484,
      "Hum": 4485,
      "mail": 4486,
      "Tech": 4487,
      "Bush": 4488,
      "patients": 4489,
      "authorities": 4490,
      "weak": 4491,
      "mechan": 4492,
      "NA": 4493,
      "ta": 4494,
      "agreed": 4495,
      "gi": 4496,
      "Pri": 4497,
      "appropri": 4498,
      "Out": 4499,
      "eli": 4500,
      "platform": 4501,
      "tend": 4502,
      "images": 4503,
      "mobile": 4504,
      "offered": 4505,
      "whatever": 4506,
      "mod": 4507,
      "resist": 4508,
      "assu": 4509,
      "Commit": 4510,
      "42": 4511,
      "massive": 4512,
      "picture": 4513,
      ".'": 4514,
      "dire": 4515,
      "ML": 4516,
      "citizens": 4517,
      "Mill": 4518,
      "ighest": 4519,
      "ijuana": 4520,
      "MO": 4521,
      "Mad": 4522,
      "sad": 4523,
      "thes": 4524,
      "prosecut": 4525,
      "Western": 4526,
      "erve": 4527,
      "limit": 4528,
      "Secret": 4529,
      "Det": 4530,
      "lets": 4531,
      "confirmed": 4532,
      "weekend": 4533,
      "iar": 4534,
      "ager": 4535,
      "revealed": 4536,
      "advis": 4537,
      "train": 4538,
      "oppon": 4539,
      "records": 4540,
      "opening": 4541,
      "believed": 4542,
      "curren": 4543,
      "Johnson": 4544,
      "strategy": 4545,
      "iful": 4546,
      "THE": 4547,
      "advantage": 4548,
      "effective": 4549,
      "BS": 4550,
      "ect": 4551,
      "brief": 4552,
      "parties": 4553,
      "heavy": 4554,
      "feeling": 4555,
      "coal": 4556,
      "Franc": 4557,
      "mir": 4558,
      "mode": 4559,
      "slight": 4560,
      "Bur": 4561,
      "fat": 4562,
      "choose": 4563,
      "solution": 4564,
      "Justice": 4565,
      "devices": 4566,
      "learned": 4567,
      "bod": 4568,
      "ieve": 4569,
      "Sto": 4570,
      "patter": 4571,
      "location": 4572,
      "east": 4573,
      "Chris": 4574,
      "lawy": 4575,
      "Security": 4576,
      "whom": 4577,
      "arrested": 4578,
      "condition": 4579,
      "interested": 4580,
      "Los": 4581,
      "highest": 4582,
      "fle": 4583,
      "daily": 4584,
      "sun": 4585,
      "independent": 4586,
      "opened": 4587,
      "runs": 4588,
      "pal": 4589,
      "vs": 4590,
      "vill": 4591,
      "2006": 4592,
      "Direct": 4593,
      "Fox": 4594,
      "supported": 4595,
      "benefit": 4596,
      "Web": 4597,
      "Sanders": 4598,
      "attract": 4599,
      "blue": 4600,
      "influence": 4601,
      "Windows": 4602,
      "profit": 4603,
      "trial": 4604,
      "provides": 4605,
      "learning": 4606,
      "Francis": 4607,
      "digital": 4608,
      "fant": 4609,
      "rants": 4610,
      "infr": 4611,
      "showing": 4612,
      "offers": 4613,
      "operations": 4614,
      "opposition": 4615,
      "ingly": 4616,
      "preci": 4617,
      "ding": 4618,
      "UT": 4619,
      "Research": 4620,
      "MS": 4621,
      "Office": 4622,
      "gers": 4623,
      "arian": 4624,
      "300": 4625,
      "residents": 4626,
      "generation": 4627,
      "ads": 4628,
      "Please": 4629,
      "eff": 4630,
      "Islamic": 4631,
      "Commission": 4632,
      "san": 4633,
      "justice": 4634,
      "belief": 4635,
      "existing": 4636,
      "pitch": 4637,
      "Dist": 4638,
      "rob": 4639,
      "memory": 4640,
      "ored": 4641,
      "defend": 4642,
      "Rel": 4643,
      "ga": 4644,
      "inner": 4645,
      "prefer": 4646,
      "Committee": 4647,
      "err": 4648,
      "investment": 4649,
      "vin": 4650,
      "dollars": 4651,
      "accur": 4652,
      "liament": 4653,
      "NFL": 4654,
      "Uk": 4655,
      "ami": 4656,
      "mig": 4657,
      "amaz": 4658,
      "marriage": 4659,
      "definitely": 4660,
      "advoc": 4661,
      "Brown": 4662,
      "mas": 4663,
      "Both": 4664,
      "telling": 4665,
      "equip": 4666,
      "pun": 4667,
      "oo": 4668,
      "debt": 4669,
      "management": 4670,
      "camera": 4671,
      "MA": 4672,
      "Cup": 4673,
      "Korea": 4674,
      "odes": 4675,
      "click": 4676,
      "charged": 4677,
      "initial": 4678,
      "ito": 4679,
      "explained": 4680,
      "DA": 4681,
      "shock": 4682,
      "politic": 4683,
      "!!": 4684,
      "associated": 4685,
      "Will": 4686,
      "views": 4687,
      "electric": 4688,
      "theory": 4689,
      "Time": 4690,
      "generally": 4691,
      "bled": 4692,
      "Govern": 4693,
      "gather": 4694,
      "worse": 4695,
      "sole": 4696,
      "Lin": 4697,
      "makers": 4698,
      "Found": 4699,
      "double": 4700,
      "fare": 4701,
      "chain": 4702,
      "driving": 4703,
      ">>": 4704,
      "nine": 4705,
      "https": 4706,
      "tack": 4707,
      "male": 4708,
      "illegal": 4709,
      "2000": 4710,
      "millions": 4711,
      "Bank": 4712,
      "ule": 4713,
      "Prof": 4714,
      "occas": 4715,
      "affic": 4716,
      "guard": 4717,
      "Sil": 4718,
      "Liber": 4719,
      "server": 4720,
      "bour": 4721,
      "purpose": 4722,
      "Canadian": 4723,
      "Despite": 4724,
      "gay": 4725,
      "atures": 4726,
      "LE": 4727,
      "formation": 4728,
      "spl": 4729,
      "Tri": 4730,
      "species": 4731,
      "opinion": 4732,
      "figh": 4733,
      "Jud": 4734,
      "Frank": 4735,
      "Back": 4736,
      "television": 4737,
      "Que": 4738,
      "committee": 4739,
      "sch": 4740,
      "itter": 4741,
      "notes": 4742,
      "basis": 4743,
      "miles": 4744,
      "rupt": 4745,
      "false": 4746,
      "Robert": 4747,
      "destroy": 4748,
      "wish": 4749,
      "flag": 4750,
      "rian": 4751,
      "stone": 4752,
      "solid": 4753,
      "proposed": 4754,
      "hundreds": 4755,
      "icit": 4756,
      "amed": 4757,
      "Their": 4758,
      "plus": 4759,
      "machine": 4760,
      "extremely": 4761,
      "Pre": 4762,
      "controvers": 4763,
      "bow": 4764,
      "Mur": 4765,
      "tough": 4766,
      "hack": 4767,
      "rated": 4768,
      "kid": 4769,
      "TO": 4770,
      "Ver": 4771,
      "41": 4772,
      "mentioned": 4773,
      "uries": 4774,
      "partners": 4775,
      "negative": 4776,
      "floor": 4777,
      "faith": 4778,
      "shared": 4779,
      "obtain": 4780,
      "length": 4781,
      "lor": 4782,
      "Israeli": 4783,
      "achieve": 4784,
      "becomes": 4785,
      "spread": 4786,
      "stated": 4787,
      "ni": 4788,
      "Del": 4789,
      "constant": 4790,
      "Leg": 4791,
      "valid": 4792,
      "gency": 4793,
      "________": 4794,
      "##": 4795,
      "Jim": 4796,
      "Sur": 4797,
      "bottom": 4798,
      "prop": 4799,
      "apt": 4800,
      "becoming": 4801,
      "DC": 4802,
      "announce": 4803,
      "ato": 4804,
      "remark": 4805,
      "usual": 4806,
      "surround": 4807,
      "dem": 4808,
      "SS": 4809,
      "minute": 4810,
      "43": 4811,
      "IR": 4812,
      "scientists": 4813,
      "holding": 4814,
      "Jones": 4815,
      "Miss": 4816,
      "pm": 4817,
      "abilities": 4818,
      "Er": 4819,
      "afford": 4820,
      "wild": 4821,
      "exer": 4822,
      "Microsoft": 4823,
      "trig": 4824,
      "easier": 4825,
      "ara": 4826,
      "episode": 4827,
      "accused": 4828,
      "structure": 4829,
      "Rock": 4830,
      "ault": 4831,
      "putting": 4832,
      "judge": 4833,
      "cash": 4834,
      "sid": 4835,
      "marijuana": 4836,
      "deg": 4837,
      "Atl": 4838,
      "ume": 4839,
      "aked": 4840,
      "eline": 4841,
      "legislation": 4842,
      "IV": 4843,
      "identified": 4844,
      "incred": 4845,
      "inch": 4846,
      "bly": 4847,
      "Tim": 4848,
      "reduce": 4849,
      "issued": 4850,
      "watching": 4851,
      "Church": 4852,
      "occup": 4853,
      "FBI": 4854,
      "attor": 4855,
      "gent": 4856,
      "Good": 4857,
      "iven": 4858,
      "56": 4859,
      "documents": 4860,
      "sleep": 4861,
      "internet": 4862,
      "PD": 4863,
      "complet": 4864,
      "yes": 4865,
      "consci": 4866,
      "fresh": 4867,
      "testing": 4868,
      "stress": 4869,
      "ements": 4870,
      "Carol": 4871,
      "atically": 4872,
      "notice": 4873,
      "hus": 4874,
      "victims": 4875,
      "Bal": 4876,
      "Yet": 4877,
      "radio": 4878,
      "tren": 4879,
      "Britain": 4880,
      "older": 4881,
      "daughter": 4882,
      "audience": 4883,
      "argument": 4884,
      "returned": 4885,
      "ining": 4886,
      "plays": 4887,
      "categ": 4888,
      "raz": 4889,
      "Afgh": 4890,
      "vehicle": 4891,
      "ibility": 4892,
      "rum": 4893,
      "57": 4894,
      "bell": 4895,
      "owner": 4896,
      "ered": 4897,
      "LA": 4898,
      "doubt": 4899,
      "dangerous": 4900,
      "explain": 4901,
      "2005": 4902,
      "victory": 4903,
      "micro": 4904,
      "vation": 4905,
      "phil": 4906,
      "direction": 4907,
      "instance": 4908,
      "driver": 4909,
      "Ros": 4910,
      "Gar": 4911,
      "communities": 4912,
      "commercial": 4913,
      "ano": 4914,
      "consu": 4915,
      "separate": 4916,
      "zen": 4917,
      "famous": 4918,
      "tests": 4919,
      "contain": 4920,
      "Institute": 4921,
      "hearing": 4922,
      "dome": 4923,
      "launched": 4924,
      "Jeff": 4925,
      "Tal": 4926,
      "58": 4927,
      "lished": 4928,
      "decade": 4929,
      "background": 4930,
      "iev": 4931,
      "burn": 4932,
      "worst": 4933,
      "cards": 4934,
      "()": 4935,
      "north": 4936,
      "cro": 4937,
      "Cha": 4938,
      "tact": 4939,
      "bling": 4940,
      "department": 4941,
      "keeping": 4942,
      "Pak": 4943,
      "transfer": 4944,
      "Ama": 4945,
      "leadership": 4946,
      "fuel": 4947,
      "ounds": 4948,
      "Ryan": 4949,
      "coverage": 4950,
      "Jewish": 4951,
      "UR": 4952,
      "pow": 4953,
      "59": 4954,
      "gain": 4955,
      "icated": 4956,
      "Ukrain": 4957,
      "graphy": 4958,
      "discovered": 4959,
      "champion": 4960,
      "unit": 4961,
      "pto": 4962,
      "hate": 4963,
      "Sol": 4964,
      "acity": 4965,
      "drugs": 4966,
      "none": 4967,
      "writer": 4968,
      "Team": 4969,
      "missed": 4970,
      "Sou": 4971,
      "competition": 4972,
      "Open": 4973,
      "mous": 4974,
      "degree": 4975,
      "repeated": 4976,
      "Ms": 4977,
      "2018": 4978,
      "focused": 4979,
      "——": 4980,
      "tools": 4981,
      "bag": 4982,
      "traffic": 4983,
      "initi": 4984,
      "earth": 4985,
      "master": 4986,
      "oppos": 4987,
      "steps": 4988,
      "ava": 4989,
      "voted": 4990,
      "supporters": 4991,
      "Gree": 4992,
      "established": 4993,
      "spoke": 4994,
      "allowing": 4995,
      "istics": 4996,
      "farm": 4997,
      "please": 4998,
      "Palestin": 4999,
      "finding": 5000,
      "compar": 5001,
      "surface": 5002,
      "suggested": 5003,
      "====": 5004,
      "iring": 5005,
      "nel": 5006,
      "concerned": 5007,
      "items": 5008,
      "restaur": 5009,
      "Fire": 5010,
      "aker": 5011,
      "missing": 5012,
      "ka": 5013,
      "Richard": 5014,
      "Free": 5015,
      "Group": 5016,
      "McC": 5017,
      "draft": 5018,
      "USA": 5019,
      "tip": 5020,
      "terri": 5021,
      "cks": 5022,
      "Fore": 5023,
      "bid": 5024,
      "itude": 5025,
      "52": 5026,
      "hone": 5027,
      "disease": 5028,
      "responsib": 5029,
      "swe": 5030,
      "ght": 5031,
      "cript": 5032,
      "Tre": 5033,
      "infl": 5034,
      "eg": 5035,
      "raise": 5036,
      "utin": 5037,
      "inct": 5038,
      "Great": 5039,
      "strength": 5040,
      "sche": 5041,
      "Book": 5042,
      "smaller": 5043,
      "lad": 5044,
      "HT": 5045,
      "Mat": 5046,
      "pa": 5047,
      "experiment": 5048,
      "partner": 5049,
      "strateg": 5050,
      "insurance": 5051,
      "icy": 5052,
      "anta": 5053,
      "entirely": 5054,
      "consequ": 5055,
      "ester": 5056,
      "assault": 5057,
      "compon": 5058,
      "cook": 5059,
      "Afghan": 5060,
      "grade": 5061,
      "orial": 5062,
      "crowd": 5063,
      "annual": 5064,
      "download": 5065,
      "crash": 5066,
      "aspect": 5067,
      "chann": 5068,
      "largely": 5069,
      "lege": 5070,
      "conflict": 5071,
      "familiar": 5072,
      "ba": 5073,
      "changing": 5074,
      "GOP": 5075,
      "transport": 5076,
      "caught": 5077,
      "union": 5078,
      "lights": 5079,
      "Martin": 5080,
      "corporate": 5081,
      "husband": 5082,
      "ctors": 5083,
      "Louis": 5084,
      "animals": 5085,
      "reform": 5086,
      "grant": 5087,
      "itation": 5088,
      "requires": 5089,
      "talent": 5090,
      "hun": 5091,
      "Mod": 5092,
      "finished": 5093,
      "update": 5094,
      "sust": 5095,
      "subscri": 5096,
      "andom": 5097,
      "candidates": 5098,
      "speaking": 5099,
      "icon": 5100,
      "sports": 5101,
      "files": 5102,
      "Japanese": 5103,
      "joined": 5104,
      "zone": 5105,
      "****": 5106,
      "activities": 5107,
      "guess": 5108,
      "businesses": 5109,
      "acts": 5110,
      "pair": 5111,
      "Ap": 5112,
      "igned": 5113,
      "African": 5114,
      "Bern": 5115,
      "enforcement": 5116,
      "nic": 5117,
      "truly": 5118,
      "01": 5119,
      "brary": 5120,
      "assess": 5121,
      "izes": 5122,
      "lip": 5123,
      "Virgin": 5124,
      "introduced": 5125,
      "eat": 5126,
      "pts": 5127,
      "believes": 5128,
      "concern": 5129,
      "planning": 5130,
      "strike": 5131,
      "Ir": 5132,
      "banks": 5133,
      "refuge": 5134,
      "!”": 5135,
      "register": 5136,
      "witness": 5137,
      "elds": 5138,
      "abuse": 5139,
      "Jon": 5140,
      "outs": 5141,
      "Android": 5142,
      "Comp": 5143,
      "Thomas": 5144,
      "RO": 5145,
      "Africa": 5146,
      "restrict": 5147,
      "Mexico": 5148,
      "bass": 5149,
      "selling": 5150,
      "Den": 5151,
      "Association": 5152,
      "andon": 5153,
      "mut": 5154,
      "shall": 5155,
      "presence": 5156,
      "waiting": 5157,
      "olf": 5158,
      "CEO": 5159,
      "rig": 5160,
      "balance": 5161,
      "Jose": 5162,
      "Public": 5163,
      "offensive": 5164,
      "cells": 5165,
      "spirit": 5166,
      "gins": 5167,
      "south": 5168,
      "decisions": 5169,
      "managed": 5170,
      "aj": 5171,
      "Government": 5172,
      "cancer": 5173,
      "Gen": 5174,
      "mm": 5175,
      "fish": 5176,
      "homes": 5177,
      "inger": 5178,
      "brow": 5179,
      "mical": 5180,
      "girls": 5181,
      "fourth": 5182,
      "nar": 5183,
      "measures": 5184,
      "funds": 5185,
      "Ve": 5186,
      "spokesman": 5187,
      "injury": 5188,
      "faces": 5189,
      "Mary": 5190,
      "holds": 5191,
      "Watch": 5192,
      "aggress": 5193,
      "tells": 5194,
      "housing": 5195,
      "models": 5196,
      "lived": 5197,
      "Peter": 5198,
      "aps": 5199,
      "portion": 5200,
      "novel": 5201,
      "eval": 5202,
      "newsp": 5203,
      "employment": 5204,
      "connection": 5205,
      "interests": 5206,
      "Angeles": 5207,
      "exclus": 5208,
      "iling": 5209,
      "sides": 5210,
      "hasn": 5211,
      "51": 5212,
      "dat": 5213,
      "hib": 5214,
      "context": 5215,
      "pes": 5216,
      "IM": 5217,
      "reject": 5218,
      "oring": 5219,
      "collection": 5220,
      "beautiful": 5221,
      "ounder": 5222,
      "providing": 5223,
      "rial": 5224,
      "useful": 5225,
      "removed": 5226,
      "committed": 5227,
      "Service": 5228,
      "cuts": 5229,
      "mere": 5230,
      "recommend": 5231,
      "Bet": 5232,
      "discussion": 5233,
      "heat": 5234,
      "ya": 5235,
      "stopped": 5236,
      "crew": 5237,
      "Army": 5238,
      "flight": 5239,
      "formed": 5240,
      "commission": 5241,
      "66": 5242,
      "Roy": 5243,
      "killing": 5244,
      "skin": 5245,
      "identity": 5246,
      "tweet": 5247,
      "scientific": 5248,
      "ults": 5249,
      "Media": 5250,
      "Hel": 5251,
      "py": 5252,
      "eter": 5253,
      "Supreme": 5254,
      "Down": 5255,
      "azine": 5256,
      "presents": 5257,
      "54": 5258,
      "acknow": 5259,
      "liance": 5260,
      "figures": 5261,
      "loved": 5262,
      "score": 5263,
      "laugh": 5264,
      "supply": 5265,
      "Prime": 5266,
      "healthy": 5267,
      "vul": 5268,
      "exchange": 5269,
      "techni": 5270,
      "53": 5271,
      "ios": 5272,
      "operating": 5273,
      "revolution": 5274,
      "optim": 5275,
      "arrived": 5276,
      "otherwise": 5277,
      "irt": 5278,
      "planned": 5279,
      "veter": 5280,
      "vant": 5281,
      "rot": 5282,
      "ronic": 5283,
      "400": 5284,
      "relatively": 5285,
      "brother": 5286,
      "Ok": 5287,
      "protection": 5288,
      "therefore": 5289,
      "Joe": 5290,
      "corner": 5291,
      "NC": 5292,
      "College": 5293,
      "evil": 5294,
      "Ko": 5295,
      "expensive": 5296,
      "Top": 5297,
      "thanks": 5298,
      "isation": 5299,
      "han": 5300,
      "bac": 5301,
      "batter": 5302,
      "mes": 5303,
      "2004": 5304,
      "slightly": 5305,
      "nut": 5306,
      "igan": 5307,
      "promise": 5308,
      "planet": 5309,
      "trip": 5310,
      "feels": 5311,
      "Before": 5312,
      "window": 5313,
      "Ari": 5314,
      "harm": 5315,
      "sky": 5316,
      "Bitcoin": 5317,
      "hang": 5318,
      "button": 5319,
      "Pan": 5320,
      "bin": 5321,
      "markets": 5322,
      "Bob": 5323,
      "mad": 5324,
      "circum": 5325,
      "appropriate": 5326,
      "prove": 5327,
      "Blue": 5328,
      "eful": 5329,
      "domestic": 5330,
      "Year": 5331,
      "armed": 5332,
      "skills": 5333,
      "paying": 5334,
      "dden": 5335,
      "icial": 5336,
      "sight": 5337,
      "accident": 5338,
      "survey": 5339,
      "possibly": 5340,
      "atest": 5341,
      "Phone": 5342,
      "Where": 5343,
      "eless": 5344,
      "Jes": 5345,
      "igno": 5346,
      "ander": 5347,
      "Amazon": 5348,
      "Social": 5349,
      "].": 5350,
      "eah": 5351,
      "immigration": 5352,
      "Look": 5353,
      "fortunately": 5354,
      "Power": 5355,
      "Secretary": 5356,
      "starts": 5357,
      "losing": 5358,
      "elements": 5359,
      "bott": 5360,
      "seek": 5361,
      "enses": 5362,
      "fellow": 5363,
      "Show": 5364,
      "Syrian": 5365,
      "lyn": 5366,
      "bles": 5367,
      "Bow": 5368,
      "taxes": 5369,
      "suggests": 5370,
      "ifying": 5371,
      "lon": 5372,
      "Dan": 5373,
      "boys": 5374,
      "Mean": 5375,
      "failure": 5376,
      "defensive": 5377,
      "seconds": 5378,
      "medic": 5379,
      "uty": 5380,
      "detect": 5381,
      "acting": 5382,
      "adjust": 5383,
      "fly": 5384,
      "Gal": 5385,
      "Chief": 5386,
      "construct": 5387,
      "Images": 5388,
      "icide": 5389,
      "Hall": 5390,
      "photos": 5391,
      "Central": 5392,
      "insp": 5393,
      "award": 5394,
      "susp": 5395,
      "patch": 5396,
      "ancing": 5397,
      "Di": 5398,
      "Men": 5399,
      "AF": 5400,
      "bigger": 5401,
      "fired": 5402,
      "finish": 5403,
      "Fig": 5404,
      "aine": 5405,
      "iation": 5406,
      "intended": 5407,
      "0000": 5408,
      "Ru": 5409,
      "erous": 5410,
      "remind": 5411,
      "army": 5412,
      "switch": 5413,
      "pi": 5414,
      "yards": 5415,
      "amazing": 5416,
      "pil": 5417,
      "beer": 5418,
      "noon": 5419,
      "located": 5420,
      "script": 5421,
      "Color": 5422,
      "phones": 5423,
      "sudden": 5424,
      "luck": 5425,
      "rat": 5426,
      "auto": 5427,
      "rush": 5428,
      "aks": 5429,
      "happening": 5430,
      "carried": 5431,
      "univers": 5432,
      "tag": 5433,
      "absolutely": 5434,
      "Only": 5435,
      "consul": 5436,
      "Second": 5437,
      "breaking": 5438,
      "talks": 5439,
      "Bost": 5440,
      "broken": 5441,
      "78": 5442,
      "aints": 5443,
      "academ": 5444,
      "filled": 5445,
      "votes": 5446,
      "iders": 5447,
      "turns": 5448,
      "error": 5449,
      "95": 5450,
      "wear": 5451,
      "alternative": 5452,
      "unless": 5453,
      "apping": 5454,
      "convict": 5455,
      "Each": 5456,
      "conce": 5457,
      "Rad": 5458,
      "filed": 5459,
      "Matt": 5460,
      "connected": 5461,
      "uate": 5462,
      "Steve": 5463,
      "Mass": 5464,
      "decide": 5465,
      "lym": 5466,
      "OL": 5467,
      "Brad": 5468,
      "humans": 5469,
      "uce": 5470,
      "carbon": 5471,
      "impossible": 5472,
      "philos": 5473,
      "helping": 5474,
      "Toronto": 5475,
      "string": 5476,
      "gypt": 5477,
      "astru": 5478,
      "agues": 5479,
      "spring": 5480,
      "Rem": 5481,
      "Though": 5482,
      "standards": 5483,
      "HL": 5484,
      "broadcast": 5485,
      "apply": 5486,
      "glass": 5487,
      "reser": 5488,
      "seeking": 5489,
      "SE": 5490,
      "Camp": 5491,
      "appearance": 5492,
      "dim": 5493,
      "CP": 5494,
      "Journal": 5495,
      "Sing": 5496,
      "district": 5497,
      "adium": 5498,
      "capacity": 5499,
      "68": 5500,
      "lots": 5501,
      "fif": 5502,
      "va": 5503,
      "dropped": 5504,
      "variety": 5505,
      "Force": 5506,
      "Mel": 5507,
      "vast": 5508,
      "deploy": 5509,
      "possibility": 5510,
      "religion": 5511,
      "graphic": 5512,
      "secure": 5513,
      "prospect": 5514,
      "Boston": 5515,
      "owned": 5516,
      "sport": 5517,
      "fundament": 5518,
      "Maybe": 5519,
      "gotten": 5520,
      "Federal": 5521,
      "Glo": 5522,
      "aces": 5523,
      "gue": 5524,
      "Foundation": 5525,
      "accounts": 5526,
      "elected": 5527,
      "positions": 5528,
      "uters": 5529,
      "apparently": 5530,
      "Still": 5531,
      "faced": 5532,
      "Hist": 5533,
      "professor": 5534,
      "creation": 5535,
      "Space": 5536,
      "Far": 5537,
      "Egypt": 5538,
      "twice": 5539,
      "valu": 5540,
      "Sour": 5541,
      "apers": 5542,
      "rom": 5543,
      "units": 5544,
      "NAS": 5545,
      "CNN": 5546,
      "Cy": 5547,
      "worry": 5548,
      "Sign": 5549,
      "itz": 5550,
      "surprising": 5551,
      "schedul": 5552,
      "Lee": 5553,
      "voc": 5554,
      "lean": 5555,
      "helps": 5556,
      "developers": 5557,
      "facing": 5558,
      "Guard": 5559,
      "ception": 5560,
      "warning": 5561,
      "Pac": 5562,
      "ares": 5563,
      "ancy": 5564,
      "regarding": 5565,
      "comed": 5566,
      "IG": 5567,
      "tight": 5568,
      "experts": 5569,
      "77": 5570,
      "internal": 5571,
      "1990": 5572,
      "sounds": 5573,
      "uration": 5574,
      "kin": 5575,
      "prepared": 5576,
      "Hor": 5577,
      "awa": 5578,
      "abort": 5579,
      "trail": 5580,
      "developing": 5581,
      "currency": 5582,
      "maxim": 5583,
      "ultimately": 5584,
      "comfortable": 5585,
      "agencies": 5586,
      "authority": 5587,
      "Mich": 5588,
      "closer": 5589,
      "soldiers": 5590,
      "Right": 5591,
      "mov": 5592,
      "imagine": 5593,
      "Cru": 5594,
      "sector": 5595,
      "Mont": 5596,
      "Carolina": 5597,
      "astructure": 5598,
      "pping": 5599,
      "shots": 5600,
      "Middle": 5601,
      "pieces": 5602,
      "elim": 5603,
      "rick": 5604,
      "clim": 5605,
      "multi": 5606,
      "hase": 5607,
      "suff": 5608,
      "cycle": 5609,
      "Getty": 5610,
      "bringing": 5611,
      "phy": 5612,
      "reci": 5613,
      "mort": 5614,
      "capable": 5615,
      "satis": 5616,
      "animal": 5617,
      "sitting": 5618,
      "Fo": 5619,
      "gment": 5620,
      "illa": 5621,
      "!\"": 5622,
      "stars": 5623,
      "ups": 5624,
      "kins": 5625,
      "seat": 5626,
      "About": 5627,
      "abs": 5628,
      "honest": 5629,
      "alty": 5630,
      "=\"": 5631,
      "FA": 5632,
      "poses": 5633,
      "ett": 5634,
      "ansion": 5635,
      "arante": 5636,
      "ray": 5637,
      "District": 5638,
      "Life": 5639,
      "Williams": 5640,
      "View": 5641,
      "solar": 5642,
      "affected": 5643,
      "Ron": 5644,
      "chemical": 5645,
      "bridge": 5646,
      "aters": 5647,
      "jour": 5648,
      "Virginia": 5649,
      "Francisco": 5650,
      "alle": 5651,
      "Cath": 5652,
      "plate": 5653,
      "cultural": 5654,
      "passing": 5655,
      "inate": 5656,
      "Lat": 5657,
      "estimated": 5658,
      "elections": 5659,
      "cold": 5660,
      "dress": 5661,
      "evin": 5662,
      "pled": 5663,
      "Hu": 5664,
      "prime": 5665,
      "ki": 5666,
      "EM": 5667,
      "</": 5668,
      "Note": 5669,
      "plane": 5670,
      "olic": 5671,
      "umn": 5672,
      "university": 5673,
      "Medic": 5674,
      "Dou": 5675,
      "Conserv": 5676,
      "ada": 5677,
      "Mu": 5678,
      "moral": 5679,
      "proto": 5680,
      "Paris": 5681,
      "cohol": 5682,
      "Sum": 5683,
      "dict": 5684,
      "Project": 5685,
      "random": 5686,
      "Andrew": 5687,
      "Australian": 5688,
      "equal": 5689,
      "surprise": 5690,
      "baby": 5691,
      "attend": 5692,
      "presented": 5693,
      "conclus": 5694,
      "tun": 5695,
      "batt": 5696,
      "crack": 5697,
      "auth": 5698,
      "Kel": 5699,
      "Hy": 5700,
      "stances": 5701,
      "eper": 5702,
      "2001": 5703,
      "expert": 5704,
      "anda": 5705,
      "avy": 5706,
      "2003": 5707,
      "explo": 5708,
      "->": 5709,
      "agent": 5710,
      "attorney": 5711,
      "lob": 5712,
      "ION": 5713,
      "render": 5714,
      "lan": 5715,
      "complic": 5716,
      "potentially": 5717,
      "pursu": 5718,
      "perspect": 5719,
      "Haw": 5720,
      "gry": 5721,
      "plants": 5722,
      "DO": 5723,
      "voting": 5724,
      "occurred": 5725,
      "boost": 5726,
      "ko": 5727,
      "pression": 5728,
      "ENT": 5729,
      "opportun": 5730,
      "actor": 5731,
      "useum": 5732,
      "guarante": 5733,
      "DS": 5734,
      "icient": 5735,
      "rapid": 5736,
      "weather": 5737,
      "vehicles": 5738,
      "ador": 5739,
      "pin": 5740,
      "Ten": 5741,
      "trick": 5742,
      "88": 5743,
      "arts": 5744,
      "River": 5745,
      "modif": 5746,
      "violent": 5747,
      "Thank": 5748,
      "porary": 5749,
      "stret": 5750,
      "asp": 5751,
      "zy": 5752,
      "Cam": 5753,
      "vulner": 5754,
      "assum": 5755,
      "determine": 5756,
      "Fort": 5757,
      "pointed": 5758,
      "remove": 5759,
      "pull": 5760,
      "Jackson": 5761,
      "quot": 5762,
      "symbol": 5763,
      "troops": 5764,
      "dram": 5765,
      "NE": 5766,
      "streets": 5767,
      "thr": 5768,
      "determined": 5769,
      "ulate": 5770,
      "recru": 5771,
      "ologies": 5772,
      "listed": 5773,
      "150": 5774,
      "Human": 5775,
      "cycl": 5776,
      "\":": 5777,
      "Week": 5778,
      "experienced": 5779,
      "ours": 5780,
      "apart": 5781,
      "stance": 5782,
      "approved": 5783,
      "sts": 5784,
      "plenty": 5785,
      "sale": 5786,
      "antly": 5787,
      "jail": 5788,
      "Sports": 5789,
      "ruling": 5790,
      "Thanks": 5791,
      "urban": 5792,
      "Bud": 5793,
      "esterday": 5794,
      "faster": 5795,
      "BBC": 5796,
      "monitor": 5797,
      "factor": 5798,
      "expressed": 5799,
      "combat": 5800,
      "liberal": 5801,
      "NY": 5802,
      "Blo": 5803,
      "67": 5804,
      "William": 5805,
      "serving": 5806,
      "factors": 5807,
      "proposal": 5808,
      "council": 5809,
      "parent": 5810,
      "shape": 5811,
      "resol": 5812,
      "Vol": 5813,
      "governments": 5814,
      "bought": 5815,
      "shift": 5816,
      "equipment": 5817,
      "originally": 5818,
      "seasons": 5819,
      "System": 5820,
      "ini": 5821,
      "offering": 5822,
      "cher": 5823,
      "methods": 5824,
      "endment": 5825,
      "weapon": 5826,
      "Dani": 5827,
      "transl": 5828,
      "Best": 5829,
      "Daily": 5830,
      "refused": 5831,
      "GO": 5832,
      "truck": 5833,
      "Island": 5834,
      "handle": 5835,
      "legit": 5836,
      "Four": 5837,
      "conducted": 5838,
      "ibly": 5839,
      "regime": 5840,
      "Meanwhile": 5841,
      "relevant": 5842,
      "sphere": 5843,
      "08": 5844,
      "Ze": 5845,
      "09": 5846,
      "nd": 5847,
      "DP": 5848,
      "Spr": 5849,
      "ride": 5850,
      "Bus": 5851,
      "wearing": 5852,
      "percentage": 5853,
      "turning": 5854,
      "defined": 5855,
      "tested": 5856,
      "greatest": 5857,
      "Pakistan": 5858,
      "Je": 5859,
      "challenges": 5860,
      "Kar": 5861,
      "remained": 5862,
      "consistent": 5863,
      "isher": 5864,
      "gor": 5865,
      "retail": 5866,
      "cean": 5867,
      "youth": 5868,
      "letters": 5869,
      "05": 5870,
      "uster": 5871,
      "signs": 5872,
      "tradition": 5873,
      "twitter": 5874,
      "sam": 5875,
      "obviously": 5876,
      "embr": 5877,
      "backs": 5878,
      "broke": 5879,
      "],": 5880,
      "leads": 5881,
      "Reuters": 5882,
      "saving": 5883,
      "Inde": 5884,
      "insist": 5885,
      "wid": 5886,
      "pages": 5887,
      "Py": 5888,
      "ji": 5889,
      "recorded": 5890,
      "apps": 5891,
      "motiv": 5892,
      "ureau": 5893,
      "conscious": 5894,
      "rising": 5895,
      "treated": 5896,
      "hall": 5897,
      "minimum": 5898,
      "oral": 5899,
      "appreci": 5900,
      "ulated": 5901,
      "guns": 5902,
      "hurt": 5903,
      "Director": 5904,
      "package": 5905,
      "weren": 5906,
      "supporting": 5907,
      "etic": 5908,
      "calcul": 5909,
      "decre": 5910,
      "cient": 5911,
      "aircraft": 5912,
      "purchase": 5913,
      "distance": 5914,
      "indeed": 5915,
      ",'": 5916,
      "Ohio": 5917,
      "Develop": 5918,
      "grew": 5919,
      "ero": 5920,
      "OF": 5921,
      "bodies": 5922,
      "ashion": 5923,
      "tally": 5924,
      "films": 5925,
      "::": 5926,
      "tournam": 5927,
      "reduced": 5928,
      "visual": 5929,
      "basically": 5930,
      "involve": 5931,
      "politicians": 5932,
      "AND": 5933,
      "Labour": 5934,
      "considering": 5935,
      "clin": 5936,
      "controlled": 5937,
      "Science": 5938,
      "Hen": 5939,
      "tree": 5940,
      "Home": 5941,
      "Grand": 5942,
      "videos": 5943,
      "seriously": 5944,
      "proced": 5945,
      "Turkey": 5946,
      "sac": 5947,
      "powers": 5948,
      "revenue": 5949,
      "Rus": 5950,
      "Penn": 5951,
      "puts": 5952,
      "herself": 5953,
      "discrim": 5954,
      "contrast": 5955,
      "entry": 5956,
      "identify": 5957,
      "rif": 5958,
      "listen": 5959,
      "SP": 5960,
      "eds": 5961,
      "Hou": 5962,
      "DE": 5963,
      "Squ": 5964,
      "root": 5965,
      "remaining": 5966,
      "explos": 5967,
      "profile": 5968,
      "ita": 5969,
      "privacy": 5970,
      "Again": 5971,
      "ordered": 5972,
      "OK": 5973,
      "cluded": 5974,
      "Dar": 5975,
      "argued": 5976,
      "collap": 5977,
      "shel": 5978,
      "rang": 5979,
      "Sea": 5980,
      "Rod": 5981,
      "excited": 5982,
      "warm": 5983,
      "=>": 5984,
      "concent": 5985,
      "Ill": 5986,
      "emergency": 5987,
      "quiet": 5988,
      "lit": 5989,
      "belong": 5990,
      "square": 5991,
      "afternoon": 5992,
      "advance": 5993,
      "GM": 5994,
      "loy": 5995,
      "raising": 5996,
      "ached": 5997,
      "territ": 5998,
      "lists": 5999,
      "Kur": 6000,
      "emphas": 6001,
      "reaction": 6002,
      "narr": 6003,
      "cket": 6004,
      "Its": 6005,
      "Sher": 6006,
      "intent": 6007,
      "Olym": 6008,
      "typically": 6009,
      "enemy": 6010,
      "iger": 6011,
      "mouth": 6012,
      "confidence": 6013,
      "enh": 6014,
      "02": 6015,
      "combined": 6016,
      "married": 6017,
      "ques": 6018,
      "Du": 6019,
      "ayed": 6020,
      "empts": 6021,
      "opposed": 6022,
      "mates": 6023,
      "1980": 6024,
      "completed": 6025,
      "Hal": 6026,
      "proof": 6027,
      "Loc": 6028,
      "04": 6029,
      "ti": 6030,
      "reference": 6031,
      "Sar": 6032,
      "agement": 6033,
      "moves": 6034,
      "differences": 6035,
      "ensions": 6036,
      "shar": 6037,
      "69": 6038,
      "evening": 6039,
      "consumers": 6040,
      "Road": 6041,
      "pulled": 6042,
      "panel": 6043,
      "BO": 6044,
      "craz": 6045,
      "relations": 6046,
      "founder": 6047,
      "03": 6048,
      "shad": 6049,
      "TA": 6050,
      "blow": 6051,
      "severe": 6052,
      "entertain": 6053,
      "stim": 6054,
      "heads": 6055,
      "excell": 6056,
      "talked": 6057,
      "ruption": 6058,
      "dream": 6059,
      "gri": 6060,
      "CA": 6061,
      "linked": 6062,
      "acted": 6063,
      "fold": 6064,
      "writ": 6065,
      "Muslims": 6066,
      "widely": 6067,
      "responded": 6068,
      "Fil": 6069,
      "promised": 6070,
      "stands": 6071,
      "ordinary": 6072,
      "writes": 6073,
      "struggle": 6074,
      "Scot": 6075,
      "RA": 6076,
      "plom": 6077,
      "quant": 6078,
      "2002": 6079,
      "cou": 6080,
      "alcohol": 6081,
      "ache": 6082,
      "attempts": 6083,
      "hopes": 6084,
      "ellow": 6085,
      "patient": 6086,
      "split": 6087,
      "advert": 6088,
      "Whe": 6089,
      "declared": 6090,
      "confident": 6091,
      ",[": 6092,
      "preced": 6093,
      "picked": 6094,
      "dynam": 6095,
      "stal": 6096,
      "appointed": 6097,
      "trouble": 6098,
      "technical": 6099,
      "Ha": 6100,
      "rail": 6101,
      "offee": 6102,
      "tel": 6103,
      "dish": 6104,
      "Elect": 6105,
      "frust": 6106,
      "Afghanistan": 6107,
      "Long": 6108,
      "assem": 6109,
      "Ram": 6110,
      "instruct": 6111,
      "default": 6112,
      "caption": 6113,
      "rier": 6114,
      "sharing": 6115,
      "collabor": 6116,
      "coast": 6117,
      "diag": 6118,
      "fre": 6119,
      "ius": 6120,
      "renew": 6121,
      "franch": 6122,
      "89": 6123,
      "grown": 6124,
      "proceed": 6125,
      "Braz": 6126,
      "hat": 6127,
      "NBC": 6128,
      "ISIS": 6129,
      "driven": 6130,
      "Boy": 6131,
      "Polit": 6132,
      "Sovi": 6133,
      "replace": 6134,
      "kno": 6135,
      "fest": 6136,
      "terrorism": 6137,
      "PN": 6138,
      "ski": 6139,
      "gon": 6140,
      "scor": 6141,
      "Kim": 6142,
      "terrorist": 6143,
      "element": 6144,
      "reporters": 6145,
      "transition": 6146,
      "perman": 6147,
      "matters": 6148,
      "Sky": 6149,
      "dial": 6150,
      "giant": 6151,
      "appeal": 6152,
      "fied": 6153,
      "bug": 6154,
      "07": 6155,
      "igation": 6156,
      "client": 6157,
      "Ul": 6158,
      "fairly": 6159,
      "utter": 6160,
      "prompt": 6161,
      "crimes": 6162,
      "burg": 6163,
      "Michigan": 6164,
      "denied": 6165,
      "Youn": 6166,
      "CS": 6167,
      "Seattle": 6168,
      "Moun": 6169,
      "editor": 6170,
      "vey": 6171,
      "Cre": 6172,
      "Plan": 6173,
      "reporting": 6174,
      "Next": 6175,
      "gam": 6176,
      "intend": 6177,
      "Stan": 6178,
      "western": 6179,
      "route": 6180,
      "exter": 6181,
      "depth": 6182,
      "unable": 6183,
      "copyright": 6184,
      "ju": 6185,
      "walking": 6186,
      "numerous": 6187,
      "Call": 6188,
      "resolution": 6189,
      "invent": 6190,
      "unte": 6191,
      "Class": 6192,
      "injured": 6193,
      "venture": 6194,
      "gate": 6195,
      "Saudi": 6196,
      "Three": 6197,
      "newspaper": 6198,
      "Christmas": 6199,
      "prepar": 6200,
      "necessarily": 6201,
      "FO": 6202,
      "doctor": 6203,
      "Wood": 6204,
      "artist": 6205,
      "sees": 6206,
      "reportedly": 6207,
      "Max": 6208,
      "movies": 6209,
      "contains": 6210,
      "radical": 6211,
      "asket": 6212,
      "Mem": 6213,
      "Work": 6214,
      "ongoing": 6215,
      "perspective": 6216,
      "pictures": 6217,
      "Dec": 6218,
      "Ukraine": 6219,
      "zero": 6220,
      "tail": 6221,
      "gia": 6222,
      "messages": 6223,
      "archite": 6224,
      "debut": 6225,
      "06": 6226,
      "Take": 6227,
      "mi": 6228,
      "til": 6229,
      "kn": 6230,
      "admitted": 6231,
      "elling": 6232,
      "achiev": 6233,
      "shouldn": 6234,
      "creative": 6235,
      "advice": 6236,
      "Wik": 6237,
      "Enter": 6238,
      "Tube": 6239,
      "Prem": 6240,
      "rooms": 6241,
      "stitutional": 6242,
      "Contin": 6243,
      "agents": 6244,
      "ogue": 6245,
      "delivered": 6246,
      "abled": 6247,
      "Romney": 6248,
      "vac": 6249,
      "fashion": 6250,
      "Philip": 6251,
      "campus": 6252,
      "plot": 6253,
      "Swed": 6254,
      "Arch": 6255,
      "oles": 6256,
      "nav": 6257,
      "yard": 6258,
      "performed": 6259,
      "thoughts": 6260,
      "friendly": 6261,
      "suffered": 6262,
      "experiences": 6263,
      "explains": 6264,
      "NO": 6265,
      "Commun": 6266,
      "guest": 6267,
      "Fre": 6268,
      "pleas": 6269,
      "drivers": 6270,
      "3D": 6271,
      "Inc": 6272,
      "updates": 6273,
      "ader": 6274,
      "leaves": 6275,
      "Card": 6276,
      "NBA": 6277,
      "Vide": 6278,
      "wire": 6279,
      "pure": 6280,
      "evol": 6281,
      "TS": 6282,
      "Test": 6283,
      "habit": 6284,
      "articles": 6285,
      "pra": 6286,
      "proud": 6287,
      "democracy": 6288,
      "centre": 6289,
      "wave": 6290,
      "substant": 6291,
      "earn": 6292,
      "grab": 6293,
      "Perhaps": 6294,
      "statements": 6295,
      "thro": 6296,
      "declined": 6297,
      "icing": 6298,
      ",’": 6299,
      "emails": 6300,
      "secretary": 6301,
      "readers": 6302,
      "Did": 6303,
      "nations": 6304,
      "essentially": 6305,
      "publicly": 6306,
      "confirm": 6307,
      "joint": 6308,
      "Women": 6309,
      "inspired": 6310,
      "ales": 6311,
      "Gi": 6312,
      "adop": 6313,
      "encing": 6314,
      "Cub": 6315,
      "efficient": 6316,
      "accompl": 6317,
      "activists": 6318,
      "Cop": 6319,
      "Author": 6320,
      "cus": 6321,
      "industrial": 6322,
      "config": 6323,
      "findings": 6324,
      "exercise": 6325,
      "Techn": 6326,
      "omin": 6327,
      "Board": 6328,
      "Lar": 6329,
      "effectively": 6330,
      "ilty": 6331,
      "fighters": 6332,
      "reland": 6333,
      "athe": 6334,
      "enda": 6335,
      "Fam": 6336,
      "objects": 6337,
      "gro": 6338,
      "realize": 6339,
      "Old": 6340,
      "athlet": 6341,
      "wage": 6342,
      "covering": 6343,
      "motor": 6344,
      "forget": 6345,
      "practices": 6346,
      "Brazil": 6347,
      "lawyer": 6348,
      "bare": 6349,
      "Stand": 6350,
      "cha": 6351,
      "argue": 6352,
      "ulations": 6353,
      "visible": 6354,
      "iPhone": 6355,
      "attribut": 6356,
      "governor": 6357,
      "examples": 6358,
      "metal": 6359,
      "ansas": 6360,
      "Ret": 6361,
      "bike": 6362,
      "Barack": 6363,
      "buildings": 6364,
      "Child": 6365,
      "Greg": 6366,
      "facts": 6367,
      "Further": 6368,
      "explan": 6369,
      "replac": 6370,
      "nergy": 6371,
      "mel": 6372,
      "diplom": 6373,
      "subsequ": 6374,
      "Story": 6375,
      "Key": 6376,
      "ourselves": 6377,
      "Real": 6378,
      "expansion": 6379,
      "essential": 6380,
      "wins": 6381,
      "advanced": 6382,
      "cert": 6383,
      "pit": 6384,
      "Vict": 6385,
      "thinks": 6386,
      "existence": 6387,
      "trigger": 6388,
      "ionally": 6389,
      "List": 6390,
      "causes": 6391,
      "Ireland": 6392,
      "elder": 6393,
      "85": 6394,
      "Ann": 6395,
      "thank": 6396,
      "neither": 6397,
      "bear": 6398,
      "wed": 6399,
      "Share": 6400,
      "criticism": 6401,
      "ula": 6402,
      "initially": 6403,
      "boss": 6404,
      "scheduled": 6405,
      "Econom": 6406,
      "desire": 6407,
      "photograph": 6408,
      "Games": 6409,
      "implic": 6410,
      "Asia": 6411,
      "accepted": 6412,
      "myster": 6413,
      "injuries": 6414,
      "magazine": 6415,
      "inating": 6416,
      "allegations": 6417,
      "citizen": 6418,
      "rally": 6419,
      "abandon": 6420,
      "motion": 6421,
      "situ": 6422,
      "approv": 6423,
      "inary": 6424,
      "totally": 6425,
      "warned": 6426,
      "UC": 6427,
      "Palestinian": 6428,
      "olar": 6429,
      "Ev": 6430,
      "datab": 6431,
      "illance": 6432,
      "Jews": 6433,
      "Club": 6434,
      "Brook": 6435,
      "Div": 6436,
      "Van": 6437,
      "disput": 6438,
      "isol": 6439,
      "stag": 6440,
      "Bi": 6441,
      "72": 6442,
      "Bas": 6443,
      "rd": 6444,
      "library": 6445,
      "ause": 6446,
      "improved": 6447,
      "ena": 6448,
      "flood": 6449,
      "dependent": 6450,
      "abin": 6451,
      "shif": 6452,
      "fru": 6453,
      "hibit": 6454,
      "Lake": 6455,
      "historical": 6456,
      "pattern": 6457,
      "acknowled": 6458,
      "roughly": 6459,
      "mountain": 6460,
      "Champion": 6461,
      "cann": 6462,
      "links": 6463,
      "Bul": 6464,
      "Click": 6465,
      "drawn": 6466,
      "Way": 6467,
      "storage": 6468,
      "Daniel": 6469,
      "island": 6470,
      "materials": 6471,
      "passeng": 6472,
      "Houston": 6473,
      "stores": 6474,
      "increases": 6475,
      "Holly": 6476,
      "earned": 6477,
      "Kevin": 6478,
      "discussed": 6479,
      "Charles": 6480,
      "pover": 6481,
      "Care": 6482,
      "otic": 6483,
      "represents": 6484,
      "expression": 6485,
      "surprised": 6486,
      "chip": 6487,
      "offense": 6488,
      "everybody": 6489,
      "hypo": 6490,
      "Colorado": 6491,
      "gap": 6492,
      "applied": 6493,
      "temperature": 6494,
      "Soviet": 6495,
      "ola": 6496,
      "CD": 6497,
      "Common": 6498,
      "ulty": 6499,
      "Soci": 6500,
      "utch": 6501,
      "consumer": 6502,
      "Nick": 6503,
      "nearby": 6504,
      "YouTube": 6505,
      "classes": 6506,
      "Bat": 6507,
      "follows": 6508,
      "ME": 6509,
      "CIA": 6510,
      "aught": 6511,
      "Ky": 6512,
      "atmo": 6513,
      "Korean": 6514,
      "Cast": 6515,
      "functions": 6516,
      "earning": 6517,
      "branch": 6518,
      "approxim": 6519,
      "Davis": 6520,
      "guilty": 6521,
      "yesterday": 6522,
      "combination": 6523,
      "Link": 6524,
      "playoff": 6525,
      "backed": 6526,
      "Jesus": 6527,
      "illi": 6528,
      "clar": 6529,
      "Eli": 6530,
      "Data": 6531,
      "fraud": 6532,
      "ml": 6533,
      "cere": 6534,
      "scored": 6535,
      "irty": 6536,
      "62": 6537,
      "Love": 6538,
      "rape": 6539,
      "evolution": 6540,
      "entered": 6541,
      "begins": 6542,
      "ERS": 6543,
      "posts": 6544,
      "threats": 6545,
      "pray": 6546,
      "missions": 6547,
      "stretch": 6548,
      "mond": 6549,
      "sought": 6550,
      "Young": 6551,
      "adds": 6552,
      "Roman": 6553,
      "pip": 6554,
      "obl": 6555,
      "Set": 6556,
      "Wr": 6557,
      "Naz": 6558,
      "sters": 6559,
      "Mot": 6560,
      "protected": 6561,
      "sufficient": 6562,
      "600": 6563,
      "pushed": 6564,
      "Die": 6565,
      "Profess": 6566,
      "restaurant": 6567,
      "forth": 6568,
      "hell": 6569,
      "Putin": 6570,
      "Sa": 6571,
      "norm": 6572,
      "hole": 6573,
      "quarters": 6574,
      "63": 6575,
      "classic": 6576,
      "storm": 6577,
      "highlight": 6578,
      "Nov": 6579,
      "Civ": 6580,
      "locked": 6581,
      "buying": 6582,
      "rage": 6583,
      "gang": 6584,
      "unlikely": 6585,
      "ading": 6586,
      "Rights": 6587,
      "Wis": 6588,
      "los": 6589,
      "Ital": 6590,
      "neut": 6591,
      "index": 6592,
      "winter": 6593,
      "brings": 6594,
      "manage": 6595,
      "stable": 6596,
      "shr": 6597,
      "Eric": 6598,
      "Source": 6599,
      "snow": 6600,
      "somewhat": 6601,
      "defe": 6602,
      "Defense": 6603,
      "parliament": 6604,
      "investors": 6605,
      "lawsuit": 6606,
      "whel": 6607,
      "competitive": 6608,
      "receiving": 6609,
      "conven": 6610,
      "quir": 6611,
      "houses": 6612,
      "tle": 6613,
      "songs": 6614,
      "reasonable": 6615,
      "800": 6616,
      "favour": 6617,
      "fuck": 6618,
      "Check": 6619,
      "liqu": 6620,
      "resent": 6621,
      "networks": 6622,
      "Nat": 6623,
      "sustain": 6624,
      "marketing": 6625,
      "Vis": 6626,
      "versions": 6627,
      "duc": 6628,
      "fasc": 6629,
      "bench": 6630,
      "succeed": 6631,
      "younger": 6632,
      "icts": 6633,
      "angers": 6634,
      "knock": 6635,
      "noticed": 6636,
      "athan": 6637,
      "Tit": 6638,
      "heavily": 6639,
      "deaths": 6640,
      "',": 6641,
      "theless": 6642,
      "anywhere": 6643,
      "Gor": 6644,
      "lobby": 6645,
      "bright": 6646,
      "termin": 6647,
      "importance": 6648,
      "hid": 6649,
      "Tay": 6650,
      "channel": 6651,
      "oul": 6652,
      "colleagues": 6653,
      "Energy": 6654,
      "operate": 6655,
      "strange": 6656,
      "targets": 6657,
      "femin": 6658,
      "emotional": 6659,
      "Arizon": 6660,
      "TR": 6661,
      "Dun": 6662,
      "guid": 6663,
      "approval": 6664,
      "shit": 6665,
      "usal": 6666,
      "accurate": 6667,
      "allegedly": 6668,
      "math": 6669,
      "wers": 6670,
      "abortion": 6671,
      "Ah": 6672,
      "sick": 6673,
      "Never": 6674,
      "rev": 6675,
      "NASA": 6676,
      "dit": 6677,
      "division": 6678,
      "61": 6679,
      "andal": 6680,
      "illust": 6681,
      "flat": 6682,
      "protests": 6683,
      "promin": 6684,
      "agan": 6685,
      "nell": 6686,
      "plug": 6687,
      "Ali": 6688,
      "flash": 6689,
      "regulations": 6690,
      "Cruz": 6691,
      "Invest": 6692,
      "doctors": 6693,
      "lift": 6694,
      "ience": 6695,
      "79": 6696,
      "demo": 6697,
      "conv": 6698,
      "1970": 6699,
      "iously": 6700,
      "SH": 6701,
      "carrying": 6702,
      "pace": 6703,
      "acle": 6704,
      "replaced": 6705,
      "crazy": 6706,
      "Tot": 6707,
      "shell": 6708,
      "Harris": 6709,
      "volunte": 6710,
      "arrang": 6711,
      "Sk": 6712,
      "fixed": 6713,
      "CC": 6714,
      "hardware": 6715,
      "Arizona": 6716,
      "bels": 6717,
      "handed": 6718,
      "Java": 6719,
      "customer": 6720,
      "height": 6721,
      "Dam": 6722,
      "Run": 6723,
      "HD": 6724,
      "pregn": 6725,
      "column": 6726,
      "ulture": 6727,
      "roit": 6728,
      "fewer": 6729,
      "BM": 6730,
      "guide": 6731,
      "immediate": 6732,
      "issions": 6733,
      "iency": 6734,
      "doors": 6735,
      "Lord": 6736,
      "opposite": 6737,
      "meat": 6738,
      "mate": 6739,
      "adults": 6740,
      "signing": 6741,
      "authors": 6742,
      "suffering": 6743,
      "referred": 6744,
      "cape": 6745,
      "chairman": 6746,
      "Adam": 6747,
      "properly": 6748,
      "wound": 6749,
      "reads": 6750,
      "tiny": 6751,
      "returns": 6752,
      "fundamental": 6753,
      "Fi": 6754,
      "facility": 6755,
      "Catholic": 6756,
      "literally": 6757,
      "sand": 6758,
      "frequently": 6759,
      "amin": 6760,
      "Finally": 6761,
      "Valley": 6762,
      "understood": 6763,
      "Land": 6764,
      "featured": 6765,
      "km": 6766,
      "Camer": 6767,
      "aside": 6768,
      "Miller": 6769,
      "incent": 6770,
      "fli": 6771,
      "manner": 6772,
      "oked": 6773,
      "Wilson": 6774,
      "covery": 6775,
      "Bor": 6776,
      "ros": 6777,
      "volume": 6778,
      "harder": 6779,
      "closely": 6780,
      "trend": 6781,
      "scar": 6782,
      "ancient": 6783,
      "updated": 6784,
      "Ut": 6785,
      "moments": 6786,
      "desk": 6787,
      "headed": 6788,
      "Water": 6789,
      "struck": 6790,
      "hoping": 6791,
      "suicide": 6792,
      "eating": 6793,
      "Span": 6794,
      "VR": 6795,
      "urally": 6796,
      "haw": 6797,
      "regional": 6798,
      "opponent": 6799,
      "VER": 6800,
      "excellent": 6801,
      "deeply": 6802,
      "passion": 6803,
      "GP": 6804,
      "jection": 6805,
      "ils": 6806,
      "250": 6807,
      "Hot": 6808,
      "welcome": 6809,
      "LO": 6810,
      "intel": 6811,
      "coordin": 6812,
      "instru": 6813,
      "HS": 6814,
      "detailed": 6815,
      "describe": 6816,
      "virtual": 6817,
      "Ra": 6818,
      "pushing": 6819,
      "inning": 6820,
      "dad": 6821,
      "osen": 6822,
      "fron": 6823,
      "reput": 6824,
      "Oper": 6825,
      "cutting": 6826,
      "output": 6827,
      "extent": 6828,
      "artists": 6829,
      "kinds": 6830,
      "Pen": 6831,
      "fields": 6832,
      "tournament": 6833,
      "causing": 6834,
      "Station": 6835,
      "Detroit": 6836,
      "colon": 6837,
      "Us": 6838,
      "immigrants": 6839,
      "coffee": 6840,
      "Oct": 6841,
      "Point": 6842,
      "mile": 6843,
      "disci": 6844,
      "topic": 6845,
      "Light": 6846,
      "indu": 6847,
      "observ": 6848,
      "cue": 6849,
      "sentence": 6850,
      "claiming": 6851,
      "Fer": 6852,
      "commitment": 6853,
      "(\"": 6854,
      "74": 6855,
      "fur": 6856,
      "Among": 6857,
      "Dig": 6858,
      "Brian": 6859,
      "Dark": 6860,
      "targeted": 6861,
      "gal": 6862,
      "studio": 6863,
      "Jord": 6864,
      "assets": 6865,
      "decline": 6866,
      "elines": 6867,
      "Special": 6868,
      "izon": 6869,
      "efully": 6870,
      "esome": 6871,
      "Pacific": 6872,
      "iron": 6873,
      "NS": 6874,
      "Stephen": 6875,
      "cloud": 6876,
      "watched": 6877,
      "magic": 6878,
      "onom": 6879,
      "76": 6880,
      "ears": 6881,
      "chap": 6882,
      "subsid": 6883,
      "sweet": 6884,
      "realized": 6885,
      "actors": 6886,
      "Dri": 6887,
      "Ass": 6888,
      "administr": 6889,
      "alongside": 6890,
      "stab": 6891,
      "universe": 6892,
      "mainstream": 6893,
      "proved": 6894,
      "founded": 6895,
      "Turn": 6896,
      "repeatedly": 6897,
      "Vi": 6898,
      "Night": 6899,
      "Which": 6900,
      "unknown": 6901,
      "attempted": 6902,
      "nick": 6903,
      "typical": 6904,
      "sister": 6905,
      "precise": 6906,
      "dry": 6907,
      "odd": 6908,
      "wake": 6909,
      "wash": 6910,
      "Come": 6911,
      "diagno": 6912,
      "acce": 6913,
      "schedule": 6914,
      "knowing": 6915,
      "boot": 6916,
      "domin": 6917,
      "dedicated": 6918,
      "upcoming": 6919,
      "aced": 6920,
      "waste": 6921,
      "overwhel": 6922,
      "Gaz": 6923,
      "Hun": 6924,
      "directed": 6925,
      "remote": 6926,
      "hotel": 6927,
      "Make": 6928,
      "($": 6929,
      "funded": 6930,
      "Attor": 6931,
      "Report": 6932,
      "Hollywood": 6933,
      "SU": 6934,
      "drag": 6935,
      "urning": 6936,
      "tank": 6937,
      "dealing": 6938,
      "isms": 6939,
      "kil": 6940,
      "payment": 6941,
      "journey": 6942,
      "maker": 6943,
      "bat": 6944,
      "teacher": 6945,
      "arden": 6946,
      "walked": 6947,
      "itors": 6948,
      "DNA": 6949,
      "pu": 6950,
      "LL": 6951,
      "teachers": 6952,
      "properties": 6953,
      "latter": 6954,
      "likes": 6955,
      "flex": 6956,
      "observed": 6957,
      "vices": 6958,
      "selection": 6959,
      "informed": 6960,
      "Such": 6961,
      "agenda": 6962,
      "ii": 6963,
      "eman": 6964,
      "Organ": 6965,
      "basket": 6966,
      "rog": 6967,
      "Yeah": 6968,
      "encounter": 6969,
      "ctic": 6970,
      "marked": 6971,
      "adel": 6972,
      "winner": 6973,
      "risks": 6974,
      "ulous": 6975,
      "ario": 6976,
      "anx": 6977,
      "Live": 6978,
      "dogs": 6979,
      "locations": 6980,
      "Italy": 6981,
      "Av": 6982,
      "Jr": 6983,
      "congress": 6984,
      "maximum": 6985,
      "conver": 6986,
      "wan": 6987,
      "reward": 6988,
      "wart": 6989,
      "itarian": 6990,
      "selected": 6991,
      "sample": 6992,
      "Pay": 6993,
      "Dem": 6994,
      "asks": 6995,
      "Have": 6996,
      "spell": 6997,
      "alive": 6998,
      "surrounding": 6999,
      "extended": 7000,
      "represented": 7001,
      "angle": 7002,
      "refugees": 7003,
      "fifth": 7004,
      "adult": 7005,
      "Ford": 7006,
      "protesters": 7007,
      "III": 7008,
      "gery": 7009,
      "battery": 7010,
      "deput": 7011,
      "opponents": 7012,
      "edition": 7013,
      "Administ": 7014,
      "anony": 7015,
      "Miami": 7016,
      "inher": 7017,
      "aven": 7018,
      "ophy": 7019,
      "acing": 7020,
      "Irish": 7021,
      "sending": 7022,
      "Georgia": 7023,
      "Spanish": 7024,
      "iments": 7025,
      "ias": 7026,
      "theme": 7027,
      "ensus": 7028,
      "fees": 7029,
      "kne": 7030,
      "exciting": 7031,
      "greg": 7032,
      "empty": 7033,
      "upper": 7034,
      "mistake": 7035,
      "98": 7036,
      "Labor": 7037,
      "abis": 7038,
      "impressive": 7039,
      "resistance": 7040,
      "poverty": 7041,
      "aded": 7042,
      "chester": 7043,
      "Kelly": 7044,
      "vacc": 7045,
      "convent": 7046,
      "ette": 7047,
      "deck": 7048,
      "cles": 7049,
      "tort": 7050,
      "Jordan": 7051,
      "matches": 7052,
      "ills": 7053,
      "phenomen": 7054,
      "tox": 7055,
      "))": 7056,
      "Asian": 7057,
      "Society": 7058,
      "northern": 7059,
      "thy": 7060,
      "retire": 7061,
      "honor": 7062,
      "Ray": 7063,
      "Lew": 7064,
      "Josh": 7065,
      "involving": 7066,
      "Ash": 7067,
      "input": 7068,
      "orient": 7069,
      "blame": 7070,
      "definition": 7071,
      "destroyed": 7072,
      "audio": 7073,
      "Rog": 7074,
      "theast": 7075,
      "consult": 7076,
      "phase": 7077,
      "pressed": 7078,
      "possess": 7079,
      "march": 7080,
      "deser": 7081,
      "limits": 7082,
      "Business": 7083,
      "attacked": 7084,
      "Thus": 7085,
      "Dall": 7086,
      "narrow": 7087,
      "istry": 7088,
      "inals": 7089,
      "franchise": 7090,
      "merely": 7091,
      "zo": 7092,
      "scenes": 7093,
      "writers": 7094,
      "punish": 7095,
      "Senator": 7096,
      "legally": 7097,
      "defeat": 7098,
      "anyway": 7099,
      "folks": 7100,
      "intention": 7101,
      "promote": 7102,
      "wheel": 7103,
      "Os": 7104,
      "license": 7105,
      "sharp": 7106,
      "deals": 7107,
      "Agency": 7108,
      "iest": 7109,
      "ums": 7110,
      "Orig": 7111,
      "clock": 7112,
      "Victor": 7113,
      "1999": 7114,
      "TC": 7115,
      "Company": 7116,
      "equival": 7117,
      "rival": 7118,
      "strikes": 7119,
      "Turk": 7120,
      "ensity": 7121,
      "Disney": 7122,
      "territory": 7123,
      "organized": 7124,
      "Hom": 7125,
      "marks": 7126,
      "weigh": 7127,
      "etary": 7128,
      "ruled": 7129,
      "strongly": 7130,
      "Tele": 7131,
      "harass": 7132,
      "suddenly": 7133,
      "thetic": 7134,
      "escape": 7135,
      "exposed": 7136,
      "slowly": 7137,
      "Network": 7138,
      "format": 7139,
      "requests": 7140,
      "Cross": 7141,
      "allies": 7142,
      "supports": 7143,
      "IF": 7144,
      "tent": 7145,
      "Joseph": 7146,
      "Sever": 7147,
      "Wild": 7148,
      "ashed": 7149,
      "worried": 7150,
      "arguments": 7151,
      "chose": 7152,
      "iat": 7153,
      "Pop": 7154,
      "86": 7155,
      "itable": 7156,
      "phr": 7157,
      "duty": 7158,
      "cheap": 7159,
      "bunch": 7160,
      "ccer": 7161,
      "Pack": 7162,
      "CL": 7163,
      "payments": 7164,
      "recognize": 7165,
      "NHL": 7166,
      "Moore": 7167,
      "intellect": 7168,
      "Attorney": 7169,
      "Gir": 7170,
      "nomine": 7171,
      "officially": 7172,
      "Start": 7173,
      "emen": 7174,
      "holiday": 7175,
      "0x": 7176,
      "regions": 7177,
      "obtained": 7178,
      "infect": 7179,
      "scape": 7180,
      "Indeed": 7181,
      "journalists": 7182,
      "apol": 7183,
      "Rick": 7184,
      "valuable": 7185,
      "somehow": 7186,
      "Sometimes": 7187,
      "correspond": 7188,
      "assume": 7189,
      "Jersey": 7190,
      "Program": 7191,
      "inn": 7192,
      "ideal": 7193,
      "Civil": 7194,
      "loan": 7195,
      "pilot": 7196,
      "73": 7197,
      "Tony": 7198,
      "reh": 7199,
      "awn": 7200,
      "Ba": 7201,
      "gall": 7202,
      "scheme": 7203,
      "Scotland": 7204,
      "solve": 7205,
      "Educ": 7206,
      "personally": 7207,
      "deleg": 7208,
      "flying": 7209,
      "Does": 7210,
      "Services": 7211,
      "blind": 7212,
      "stein": 7213,
      "servers": 7214,
      "fake": 7215,
      "mann": 7216,
      "worker": 7217,
      "Dead": 7218,
      "squad": 7219,
      "Sho": 7220,
      "quarterback": 7221,
      "critics": 7222,
      "falling": 7223,
      "LGB": 7224,
      "captured": 7225,
      "Kir": 7226,
      "’.": 7227,
      "god": 7228,
      "%)": 7229,
      "expo": 7230,
      "Global": 7231,
      "stack": 7232,
      "village": 7233,
      "conspir": 7234,
      "comparison": 7235,
      "enable": 7236,
      "isan": 7237,
      "mayor": 7238,
      "History": 7239,
      "category": 7240,
      "flav": 7241,
      "facilities": 7242,
      "fection": 7243,
      "insul": 7244,
      "Op": 7245,
      "dozen": 7246,
      "condem": 7247,
      "Fall": 7248,
      "Dallas": 7249,
      "employee": 7250,
      "WE": 7251,
      "axy": 7252,
      "dated": 7253,
      "somewhere": 7254,
      "Academ": 7255,
      "inson": 7256,
      "Foreign": 7257,
      "info": 7258,
      "database": 7259,
      "capture": 7260,
      "Linux": 7261,
      "Following": 7262,
      "racial": 7263,
      "None": 7264,
      "GE": 7265,
      "SO": 7266,
      "endor": 7267,
      "shire": 7268,
      "hits": 7269,
      "robot": 7270,
      "illing": 7271,
      "desper": 7272,
      "Gra": 7273,
      "southern": 7274,
      "LGBT": 7275,
      "meetings": 7276,
      "71": 7277,
      "constit": 7278,
      "polls": 7279,
      "primarily": 7280,
      "prise": 7281,
      "trading": 7282,
      "registered": 7283,
      "Bell": 7284,
      "interpret": 7285,
      "Spain": 7286,
      "owa": 7287,
      "CR": 7288,
      "Nations": 7289,
      "encourage": 7290,
      "emissions": 7291,
      "chosen": 7292,
      "coll": 7293,
      "trees": 7294,
      "stronger": 7295,
      "generated": 7296,
      "goods": 7297,
      "Mob": 7298,
      "ticket": 7299,
      "PG": 7300,
      "icken": 7301,
      "WH": 7302,
      "Video": 7303,
      "asser": 7304,
      "developer": 7305,
      "param": 7306,
      "Lad": 7307,
      "cin": 7308,
      "ented": 7309,
      "Minnes": 7310,
      "myth": 7311,
      "exists": 7312,
      "generate": 7313,
      "ende": 7314,
      "Pad": 7315,
      "Italian": 7316,
      "spoken": 7317,
      "threatened": 7318,
      "Shar": 7319,
      "extensive": 7320,
      "reck": 7321,
      "mixed": 7322,
      "owed": 7323,
      "perfectly": 7324,
      "nobody": 7325,
      "apy": 7326,
      "rey": 7327,
      "Bon": 7328,
      "Music": 7329,
      "zens": 7330,
      "amounts": 7331,
      "purposes": 7332,
      "intim": 7333,
      "Food": 7334,
      "adapt": 7335,
      "publish": 7336,
      "Taylor": 7337,
      "Southern": 7338,
      ".\"[": 7339,
      "employed": 7340,
      "Through": 7341,
      "discipl": 7342,
      "anticip": 7343,
      "institution": 7344,
      "compreh": 7345,
      "illy": 7346,
      "ogy": 7347,
      "gaming": 7348,
      "Without": 7349,
      "components": 7350,
      "retain": 7351,
      "grav": 7352,
      "finds": 7353,
      "regularly": 7354,
      "inations": 7355,
      "distinct": 7356,
      "closure": 7357,
      "roads": 7358,
      "Wars": 7359,
      "reveal": 7360,
      "Major": 7361,
      "Democrat": 7362,
      "thew": 7363,
      "warming": 7364,
      "affil": 7365,
      "constantly": 7366,
      "tied": 7367,
      "plo": 7368,
      "scan": 7369,
      "Foot": 7370,
      "electricity": 7371,
      "answers": 7372,
      "aggressive": 7373,
      "blocks": 7374,
      "Jason": 7375,
      "manufactur": 7376,
      "rol": 7377,
      "iti": 7378,
      "Series": 7379,
      "rejected": 7380,
      "estate": 7381,
      "programming": 7382,
      "aspects": 7383,
      "somebody": 7384,
      "Nation": 7385,
      "contem": 7386,
      "narrative": 7387,
      "itar": 7388,
      "solutions": 7389,
      "esy": 7390,
      "titles": 7391,
      "rational": 7392,
      "regon": 7393,
      "scow": 7394,
      "resulting": 7395,
      "awesome": 7396,
      "estimates": 7397,
      "signal": 7398,
      "iel": 7399,
      "petition": 7400,
      "rolling": 7401,
      "ht": 7402,
      "ders": 7403,
      "drinking": 7404,
      "installed": 7405,
      "starter": 7406,
      "Minnesota": 7407,
      "stuck": 7408,
      "bitcoin": 7409,
      "Ever": 7410,
      "bath": 7411,
      "Tem": 7412,
      "Kr": 7413,
      "TP": 7414,
      "enthus": 7415,
      "choices": 7416,
      "terrible": 7417,
      "baseball": 7418,
      "Hop": 7419,
      "excess": 7420,
      "hidden": 7421,
      "util": 7422,
      "Sl": 7423,
      "Win": 7424,
      "seats": 7425,
      "bills": 7426,
      "fu": 7427,
      "Given": 7428,
      "historic": 7429,
      "WS": 7430,
      "aser": 7431,
      "Bron": 7432,
      "Simp": 7433,
      "Season": 7434,
      "incredibly": 7435,
      "oration": 7436,
      "afr": 7437,
      "enemies": 7438,
      "Fal": 7439,
      "vard": 7440,
      "Wel": 7441,
      "compens": 7442,
      "keys": 7443,
      "elsewhere": 7444,
      "icted": 7445,
      "province": 7446,
      "worldwide": 7447,
      "Tour": 7448,
      "incredible": 7449,
      "anymore": 7450,
      "Hard": 7451,
      "situations": 7452,
      "inspir": 7453,
      "continuing": 7454,
      "asts": 7455,
      "angry": 7456,
      "contributed": 7457,
      "coalition": 7458,
      "county": 7459,
      "Use": 7460,
      "keeps": 7461,
      "icip": 7462,
      "rence": 7463,
      "attended": 7464,
      "cable": 7465,
      "engaged": 7466,
      "admit": 7467,
      "Snow": 7468,
      "Comm": 7469,
      "Stat": 7470,
      "grees": 7471,
      "routine": 7472,
      "Henry": 7473,
      "neur": 7474,
      "apartment": 7475,
      "parking": 7476,
      "visited": 7477,
      "Gall": 7478,
      "Prote": 7479,
      "Iowa": 7480,
      "drawing": 7481,
      "Name": 7482,
      "passes": 7483,
      "Rose": 7484,
      "outcome": 7485,
      "controls": 7486,
      "recovery": 7487,
      "cited": 7488,
      "engineering": 7489,
      "clients": 7490,
      "concluded": 7491,
      "privile": 7492,
      "plastic": 7493,
      "bio": 7494,
      "edia": 7495,
      "machines": 7496,
      "rein": 7497,
      "permanent": 7498,
      "complicated": 7499,
      "Review": 7500,
      "assistant": 7501,
      "120": 7502,
      "ilit": 7503,
      "Keep": 7504,
      "shares": 7505,
      "extrem": 7506,
      "mining": 7507,
      "Rand": 7508,
      "pse": 7509,
      "Oregon": 7510,
      "powered": 7511,
      "crucial": 7512,
      "cuit": 7513,
      "contest": 7514,
      "ua": 7515,
      "2019": 7516,
      "DR": 7517,
      "neutral": 7518,
      "bull": 7519,
      "engage": 7520,
      "lum": 7521,
      "reporter": 7522,
      "corruption": 7523,
      "pread": 7524,
      "depending": 7525,
      "manip": 7526,
      "Cir": 7527,
      "rose": 7528,
      "NAT": 7529,
      "demands": 7530,
      "academic": 7531,
      "consumption": 7532,
      "ABC": 7533,
      "tap": 7534,
      "geo": 7535,
      "Cat": 7536,
      "atmosphere": 7537,
      "Moscow": 7538,
      "Lam": 7539,
      "sider": 7540,
      "Tar": 7541,
      "cers": 7542,
      "medium": 7543,
      "Little": 7544,
      "Ur": 7545,
      "newly": 7546,
      "enders": 7547,
      "granted": 7548,
      "explanation": 7549,
      "spons": 7550,
      "liked": 7551,
      "producing": 7552,
      "1998": 7553,
      "uated": 7554,
      "etch": 7555,
      "Using": 7556,
      "elig": 7557,
      "rely": 7558,
      "firms": 7559,
      "returning": 7560,
      "roster": 7561,
      "laid": 7562,
      "scope": 7563,
      "gg": 7564,
      "array": 7565,
      "Mah": 7566,
      "zing": 7567,
      "feedback": 7568,
      "orter": 7569,
      "Northern": 7570,
      "elite": 7571,
      "Gov": 7572,
      "mainly": 7573,
      "Kat": 7574,
      "Script": 7575,
      "Eastern": 7576,
      "CBS": 7577,
      "conclusion": 7578,
      "horri": 7579,
      "Kent": 7580,
      "productive": 7581,
      "enor": 7582,
      "yo": 7583,
      "ec": 7584,
      "iveness": 7585,
      "tracks": 7586,
      "cogn": 7587,
      "assistance": 7588,
      "complaint": 7589,
      "spark": 7590,
      "define": 7591,
      "satell": 7592,
      "courts": 7593,
      "explore": 7594,
      "regardless": 7595,
      "Head": 7596,
      "sures": 7597,
      "Greek": 7598,
      "Parliament": 7599,
      "finance": 7600,
      "pha": 7601,
      "Mars": 7602,
      "taught": 7603,
      "ucing": 7604,
      "comic": 7605,
      "fiction": 7606,
      "suspic": 7607,
      "adelph": 7608,
      "reaching": 7609,
      "Oak": 7610,
      "elled": 7611,
      "degrees": 7612,
      "amber": 7613,
      "Whether": 7614,
      "700": 7615,
      "penalty": 7616,
      "Sir": 7617,
      "lined": 7618,
      "aland": 7619,
      "Policy": 7620,
      "afraid": 7621,
      "Sn": 7622,
      "asted": 7623,
      "Bry": 7624,
      "Cred": 7625,
      "SC": 7626,
      "holders": 7627,
      "equivalent": 7628,
      "lawmakers": 7629,
      "Wiscons": 7630,
      "Dev": 7631,
      "aimed": 7632,
      "Anth": 7633,
      "Market": 7634,
      "Harry": 7635,
      "TE": 7636,
      "Bol": 7637,
      "atom": 7638,
      "Mir": 7639,
      "Juli": 7640,
      "Jay": 7641,
      "chart": 7642,
      "funny": 7643,
      "Has": 7644,
      "Contro": 7645,
      "Philadelph": 7646,
      "Pass": 7647,
      "toler": 7648,
      "hes": 7649,
      "Radio": 7650,
      "defence": 7651,
      "Fair": 7652,
      "Build": 7653,
      "foundation": 7654,
      "teaching": 7655,
      "ologist": 7656,
      "taste": 7657,
      "vulnerable": 7658,
      "Judge": 7659,
      "Viet": 7660,
      "loop": 7661,
      "Alab": 7662,
      "neuro": 7663,
      "browser": 7664,
      "veteran": 7665,
      "factory": 7666,
      "++": 7667,
      "sect": 7668,
      "forcing": 7669,
      "collected": 7670,
      "Wisconsin": 7671,
      "recording": 7672,
      "surgery": 7673,
      "chances": 7674,
      "Plus": 7675,
      "Metro": 7676,
      "techniques": 7677,
      "fought": 7678,
      "survive": 7679,
      "disaster": 7680,
      "Master": 7681,
      "92": 7682,
      "Cho": 7683,
      "Anton": 7684,
      "possession": 7685,
      "shirt": 7686,
      "rub": 7687,
      "Dre": 7688,
      "Mayor": 7689,
      "stations": 7690,
      "cock": 7691,
      "brut": 7692,
      "Wat": 7693,
      "Core": 7694,
      "%.": 7695,
      "punch": 7696,
      "1960": 7697,
      "iser": 7698,
      "sla": 7699,
      "Ow": 7700,
      "brid": 7701,
      "perce": 7702,
      "lawyers": 7703,
      "formal": 7704,
      "gorith": 7705,
      "entit": 7706,
      "Manchester": 7707,
      "Current": 7708,
      "Offic": 7709,
      "propag": 7710,
      "intr": 7711,
      "span": 7712,
      "Hay": 7713,
      "weird": 7714,
      "mony": 7715,
      "principles": 7716,
      "Having": 7717,
      "exposure": 7718,
      "scoring": 7719,
      "Avenue": 7720,
      "fis": 7721,
      "Coast": 7722,
      "Fund": 7723,
      "cyber": 7724,
      "extension": 7725,
      "cod": 7726,
      "finger": 7727,
      "Battle": 7728,
      "pounds": 7729,
      "Bir": 7730,
      "busy": 7731,
      "uncertain": 7732,
      "emerged": 7733,
      "reputation": 7734,
      "Command": 7735,
      "Rub": 7736,
      "minority": 7737,
      "Lim": 7738,
      "distr": 7739,
      "compete": 7740,
      "Ly": 7741,
      "Code": 7742,
      "idency": 7743,
      "inev": 7744,
      "Several": 7745,
      "prominent": 7746,
      "intense": 7747,
      "cker": 7748,
      "acceptable": 7749,
      "itals": 7750,
      "thesis": 7751,
      "HP": 7752,
      "Bernie": 7753,
      "drew": 7754,
      "thousand": 7755,
      "democratic": 7756,
      "adopted": 7757,
      "covers": 7758,
      "posit": 7759,
      "’,": 7760,
      "Six": 7761,
      "personnel": 7762,
      "Rober": 7763,
      "cel": 7764,
      "Navy": 7765,
      "zed": 7766,
      "barr": 7767,
      "tes": 7768,
      "processing": 7769,
      "Bowl": 7770,
      "downtown": 7771,
      "proven": 7772,
      "Action": 7773,
      "unusual": 7774,
      "thick": 7775,
      "counted": 7776,
      "sensitive": 7777,
      "river": 7778,
      "partnership": 7779,
      "Development": 7780,
      "uine": 7781,
      "explicit": 7782,
      "Professor": 7783,
      "eland": 7784,
      "vised": 7785,
      "mart": 7786,
      "patterns": 7787,
      "Alabama": 7788,
      "resulted": 7789,
      "priority": 7790,
      "96": 7791,
      "computers": 7792,
      "layer": 7793,
      "raw": 7794,
      "clubs": 7795,
      "lvan": 7796,
      "eda": 7797,
      "enjoyed": 7798,
      "Son": 7799,
      "AI": 7800,
      "ranked": 7801,
      "Lyn": 7802,
      "ole": 7803,
      "trained": 7804,
      "Conne": 7805,
      "areness": 7806,
      "bind": 7807,
      "boat": 7808,
      "producer": 7809,
      "acceler": 7810,
      "processes": 7811,
      "Education": 7812,
      "pir": 7813,
      "label": 7814,
      "Person": 7815,
      "jury": 7816,
      "warrant": 7817,
      "containing": 7818,
      "hadn": 7819,
      "Amendment": 7820,
      "ESPN": 7821,
      "roots": 7822,
      "description": 7823,
      "Gul": 7824,
      "permission": 7825,
      "Update": 7826,
      "rics": 7827,
      "rarely": 7828,
      "neck": 7829,
      "iana": 7830,
      "everywhere": 7831,
      "pump": 7832,
      "mits": 7833,
      "describes": 7834,
      "Hit": 7835,
      "ATE": 7836,
      "ighter": 7837,
      "Royal": 7838,
      "gained": 7839,
      "Related": 7840,
      "esh": 7841,
      "Rol": 7842,
      "moon": 7843,
      "Turkish": 7844,
      "Event": 7845,
      "SD": 7846,
      "thin": 7847,
      "ental": 7848,
      "boards": 7849,
      "settlement": 7850,
      "Matthew": 7851,
      "Dy": 7852,
      "Atlanta": 7853,
      "ridic": 7854,
      "Record": 7855,
      "Ice": 7856,
      "illed": 7857,
      "Line": 7858,
      "cig": 7859,
      "recognized": 7860,
      "vy": 7861,
      "Patrick": 7862,
      "component": 7863,
      "reduction": 7864,
      "ALL": 7865,
      "Type": 7866,
      "shortly": 7867,
      "grass": 7868,
      "Know": 7869,
      "racist": 7870,
      "McCain": 7871,
      "84": 7872,
      "cameras": 7873,
      "interface": 7874,
      "veget": 7875,
      "creates": 7876,
      "restr": 7877,
      "Kingdom": 7878,
      "UFC": 7879,
      "taxpay": 7880,
      "feelings": 7881,
      "iner": 7882,
      "counting": 7883,
      "imper": 7884,
      "falls": 7885,
      "agric": 7886,
      "contracts": 7887,
      "Premier": 7888,
      "sanctions": 7889,
      "82": 7890,
      "Num": 7891,
      "Ep": 7892,
      "journalist": 7893,
      "87": 7894,
      "serves": 7895,
      "1996": 7896,
      "ouch": 7897,
      "ampions": 7898,
      "Log": 7899,
      "participate": 7900,
      "Zealand": 7901,
      "saved": 7902,
      "okie": 7903,
      "hitting": 7904,
      "temporary": 7905,
      "GA": 7906,
      "discover": 7907,
      "practical": 7908,
      "amm": 7909,
      "Was": 7910,
      "ilton": 7911,
      "1997": 7912,
      "relief": 7913,
      "legitimate": 7914,
      "losses": 7915,
      "Liby": 7916,
      "uous": 7917,
      "walls": 7918,
      "MM": 7919,
      "Information": 7920,
      "Cost": 7921,
      "dozens": 7922,
      "Email": 7923,
      "grounds": 7924,
      "advertising": 7925,
      "mac": 7926,
      "contained": 7927,
      "scenario": 7928,
      "worthy": 7929,
      "osex": 7930,
      "ora": 7931,
      "crete": 7932,
      "genuine": 7933,
      "ptions": 7934,
      "afted": 7935,
      "End": 7936,
      "innov": 7937,
      "hide": 7938,
      "rolled": 7939,
      "tall": 7940,
      "principle": 7941,
      "========": 7942,
      "advertis": 7943,
      "frag": 7944,
      "thentic": 7945,
      "cession": 7946,
      "sop": 7947,
      "indicated": 7948,
      "distur": 7949,
      "Ball": 7950,
      "Full": 7951,
      "cos": 7952,
      "banned": 7953,
      "cannabis": 7954,
      "fled": 7955,
      "exception": 7956,
      "euro": 7957,
      "Columb": 7958,
      "borrow": 7959,
      "Find": 7960,
      "Former": 7961,
      "plain": 7962,
      "ethnic": 7963,
      "gift": 7964,
      "indicate": 7965,
      "bra": 7966,
      "liver": 7967,
      "destruction": 7968,
      "jack": 7969,
      "wonderful": 7970,
      "Ted": 7971,
      "Community": 7972,
      "mole": 7973,
      "endors": 7974,
      "Gun": 7975,
      "delay": 7976,
      "Ale": 7977,
      "horse": 7978,
      "algorith": 7979,
      "Anthony": 7980,
      "counsel": 7981,
      "Allen": 7982,
      "Tro": 7983,
      "BE": 7984,
      "legend": 7985,
      "Bad": 7986,
      "NOT": 7987,
      "Ell": 7988,
      "osexual": 7989,
      "grap": 7990,
      "posing": 7991,
      "quit": 7992,
      "deliber": 7993,
      "asion": 7994,
      "stall": 7995,
      "%,": 7996,
      "basketball": 7997,
      "Ren": 7998,
      "footage": 7999,
      "Death": 8000,
      "graduate": 8001,
      "stun": 8002,
      "Everyone": 8003,
      "exclusive": 8004,
      "aska": 8005,
      "sin": 8006,
      "airport": 8007,
      "lers": 8008,
      "behalf": 8009,
      "philosophy": 8010,
      "eller": 8011,
      "visions": 8012,
      "tone": 8013,
      "Main": 8014,
      "Bab": 8015,
      "IE": 8016,
      "heading": 8017,
      "etime": 8018,
      "Family": 8019,
      "anna": 8020,
      "stro": 8021,
      "API": 8022,
      "Conference": 8023,
      "astro": 8024,
      "stup": 8025,
      "entering": 8026,
      "unlike": 8027,
      "external": 8028,
      "ultural": 8029,
      "profits": 8030,
      "joining": 8031,
      "flaw": 8032,
      "convin": 8033,
      "licens": 8034,
      "normally": 8035,
      "Feb": 8036,
      "structures": 8037,
      "adequ": 8038,
      "lvania": 8039,
      "profession": 8040,
      "NSA": 8041,
      "progressive": 8042,
      "apolog": 8043,
      "transform": 8044,
      "uct": 8045,
      "convention": 8046,
      "pod": 8047,
      "Walker": 8048,
      "gear": 8049,
      "rical": 8050,
      "thread": 8051,
      "81": 8052,
      "struggling": 8053,
      "Queen": 8054,
      "farmers": 8055,
      "diet": 8056,
      "97": 8057,
      "nur": 8058,
      "bond": 8059,
      "Kansas": 8060,
      "ules": 8061,
      "oh": 8062,
      "dinner": 8063,
      "beliefs": 8064,
      "idespread": 8065,
      "Centre": 8066,
      "icks": 8067,
      "gonna": 8068,
      "roles": 8069,
      "reviews": 8070,
      "93": 8071,
      "Academy": 8072,
      "proportion": 8073,
      "iary": 8074,
      "83": 8075,
      "stadium": 8076,
      "tribut": 8077,
      "MORE": 8078,
      "fing": 8079,
      "tackle": 8080,
      "terrorists": 8081,
      "hr": 8082,
      "seas": 8083,
      "sque": 8084,
      "igen": 8085,
      "Christians": 8086,
      "barely": 8087,
      "filter": 8088,
      "listening": 8089,
      "RC": 8090,
      "electronic": 8091,
      "delivery": 8092,
      "Lind": 8093,
      "ento": 8094,
      "Hey": 8095,
      "haz": 8096,
      "Id": 8097,
      "thrown": 8098,
      "Earlier": 8099,
      "achieved": 8100,
      "deem": 8101,
      "Think": 8102,
      "fab": 8103,
      "hired": 8104,
      "Aud": 8105,
      "ued": 8106,
      "iny": 8107,
      "Austin": 8108,
      "Spring": 8109,
      "Ca": 8110,
      "Latin": 8111,
      "Tun": 8112,
      "Intell": 8113,
      "anny": 8114,
      "poly": 8115,
      "retired": 8116,
      "extr": 8117,
      "movements": 8118,
      "Dol": 8119,
      "nominee": 8120,
      "ucky": 8121,
      "ounce": 8122,
      "Box": 8123,
      "Medical": 8124,
      "bits": 8125,
      "timore": 8126,
      "forever": 8127,
      "Hur": 8128,
      "Pennsy": 8129,
      "settle": 8130,
      "Diego": 8131,
      "recognition": 8132,
      "chant": 8133,
      "burgh": 8134,
      "sper": 8135,
      "Sem": 8136,
      "hash": 8137,
      "commod": 8138,
      "roof": 8139,
      "lins": 8140,
      "Figure": 8141,
      "ingu": 8142,
      "MB": 8143,
      "regist": 8144,
      "Square": 8145,
      "iate": 8146,
      "opher": 8147,
      "welfare": 8148,
      "Albert": 8149,
      "languages": 8150,
      "chat": 8151,
      "regulation": 8152,
      "1st": 8153,
      "physic": 8154,
      "fruit": 8155,
      "usage": 8156,
      "Sure": 8157,
      "rocket": 8158,
      "sis": 8159,
      "Pu": 8160,
      "menu": 8161,
      "1995": 8162,
      "Sams": 8163,
      "loud": 8164,
      "challenging": 8165,
      "ownership": 8166,
      "Cit": 8167,
      "Sept": 8168,
      "closing": 8169,
      "Beach": 8170,
      "interviews": 8171,
      "hydro": 8172,
      "Broad": 8173,
      "strategic": 8174,
      "Golden": 8175,
      "breaks": 8176,
      "genetic": 8177,
      "hill": 8178,
      "bail": 8179,
      "Low": 8180,
      "Stone": 8181,
      "Cameron": 8182,
      "awareness": 8183,
      "ifest": 8184,
      "spin": 8185,
      "Fix": 8186,
      "cia": 8187,
      "convicted": 8188,
      "ultimate": 8189,
      "vary": 8190,
      "widespread": 8191,
      "sugar": 8192,
      "episodes": 8193,
      "dynamic": 8194,
      "Lef": 8195,
      "collapse": 8196,
      "Cry": 8197,
      "crypto": 8198,
      "aka": 8199,
      "Town": 8200,
      "reliable": 8201,
      "tickets": 8202,
      "perpet": 8203,
      "orbit": 8204,
      "20th": 8205,
      "ocean": 8206,
      "YO": 8207,
      "technique": 8208,
      "Chair": 8209,
      "transgender": 8210,
      "Assad": 8211,
      "Later": 8212,
      "Fun": 8213,
      "reducing": 8214,
      "illness": 8215,
      "————": 8216,
      "akers": 8217,
      "convinced": 8218,
      "Sus": 8219,
      "fantasy": 8220,
      "lucky": 8221,
      "logic": 8222,
      "liquid": 8223,
      "promises": 8224,
      "Santa": 8225,
      "Las": 8226,
      "ication": 8227,
      "sorry": 8228,
      "Engine": 8229,
      "Freedom": 8230,
      "wine": 8231,
      "Hand": 8232,
      "websites": 8233,
      "udes": 8234,
      "Page": 8235,
      "smooth": 8236,
      "suggesting": 8237,
      "Jam": 8238,
      "1990s": 8239,
      "fiscal": 8240,
      "rapidly": 8241,
      "invited": 8242,
      "Baltimore": 8243,
      "scores": 8244,
      "classified": 8245,
      "Environment": 8246,
      "viously": 8247,
      "UI": 8248,
      "ferences": 8249,
      "framework": 8250,
      "bars": 8251,
      "equally": 8252,
      "####": 8253,
      "94": 8254,
      "ja": 8255,
      "Dave": 8256,
      "Xbox": 8257,
      "sover": 8258,
      "acks": 8259,
      "outing": 8260,
      "peak": 8261,
      "Pit": 8262,
      "begun": 8263,
      "milk": 8264,
      "iOS": 8265,
      "icting": 8266,
      "campaigns": 8267,
      "Price": 8268,
      "exceed": 8269,
      "compat": 8270,
      "noise": 8271,
      "iety": 8272,
      "thon": 8273,
      "Age": 8274,
      "coins": 8275,
      "documented": 8276,
      "Samsung": 8277,
      "devast": 8278,
      "versus": 8279,
      "verage": 8280,
      "het": 8281,
      "hardly": 8282,
      "Mess": 8283,
      "riots": 8284,
      "usive": 8285,
      "Sony": 8286,
      "hen": 8287,
      "Anderson": 8288,
      "Cook": 8289,
      "connections": 8290,
      "Division": 8291,
      "ura": 8292,
      "tts": 8293,
      "paralle": 8294,
      "Stri": 8295,
      "eastern": 8296,
      "notion": 8297,
      "ouver": 8298,
      "performing": 8299,
      "alien": 8300,
      "soul": 8301,
      "'.": 8302,
      "grid": 8303,
      "smoke": 8304,
      "Ku": 8305,
      "association": 8306,
      "Museum": 8307,
      "featuring": 8308,
      "asters": 8309,
      "sels": 8310,
      "contribute": 8311,
      "captain": 8312,
      "abinet": 8313,
      "Pi": 8314,
      "hibition": 8315,
      "fighter": 8316,
      "perior": 8317,
      "2nd": 8318,
      "Control": 8319,
      "WA": 8320,
      "rhe": 8321,
      "carefully": 8322,
      "Pot": 8323,
      "Five": 8324,
      "inflation": 8325,
      "hoc": 8326,
      "ptoms": 8327,
      "throwing": 8328,
      "bury": 8329,
      "Lewis": 8330,
      "riers": 8331,
      "papers": 8332,
      "tab": 8333,
      "Fest": 8334,
      "vital": 8335,
      "deputy": 8336,
      "lete": 8337,
      "portr": 8338,
      "Emp": 8339,
      "ione": 8340,
      "minds": 8341,
      "unclear": 8342,
      "discovery": 8343,
      "estimate": 8344,
      "statistics": 8345,
      "oured": 8346,
      "Greece": 8347,
      "Guardian": 8348,
      "alo": 8349,
      "Gaza": 8350,
      "viewed": 8351,
      "prepare": 8352,
      "Execut": 8353,
      "1994": 8354,
      "stupid": 8355,
      "graphics": 8356,
      "dates": 8357,
      "mont": 8358,
      "initiative": 8359,
      "fro": 8360,
      "legs": 8361,
      "bn": 8362,
      "ye": 8363,
      "endum": 8364,
      "Howard": 8365,
      "aches": 8366,
      "FF": 8367,
      "involvement": 8368,
      "substantial": 8369,
      "Mos": 8370,
      "Massach": 8371,
      "lu": 8372,
      "Associated": 8373,
      "scandal": 8374,
      "Liver": 8375,
      "Short": 8376,
      "Aff": 8377,
      "Design": 8378,
      "Ref": 8379,
      "VE": 8380,
      "lessly": 8381,
      "collective": 8382,
      "usetts": 8383,
      "failing": 8384,
      "Copy": 8385,
      "promising": 8386,
      "trem": 8387,
      "Ministry": 8388,
      "Base": 8389,
      "casual": 8390,
      "barrel": 8391,
      "ancouver": 8392,
      "Iranian": 8393,
      "Kenned": 8394,
      "orate": 8395,
      "Pent": 8396,
      "viewers": 8397,
      "reven": 8398,
      "Han": 8399,
      "breath": 8400,
      "extend": 8401,
      "deeper": 8402,
      "resource": 8403,
      "Arabia": 8404,
      "referring": 8405,
      "Tok": 8406,
      "Vancouver": 8407,
      "investigate": 8408,
      "attached": 8409,
      "Columbia": 8410,
      "gus": 8411,
      "Clevel": 8412,
      "ols": 8413,
      "barrass": 8414,
      "magn": 8415,
      "subjects": 8416,
      "behaviour": 8417,
      "thal": 8418,
      "Cleveland": 8419,
      "lips": 8420,
      "races": 8421,
      "quote": 8422,
      "spaces": 8423,
      "Moon": 8424,
      "Pict": 8425,
      "implemented": 8426,
      "controversy": 8427,
      "Prince": 8428,
      "threatening": 8429,
      "disappoint": 8430,
      "inf": 8431,
      "aze": 8432,
      "1980s": 8433,
      "settings": 8434,
      "complaints": 8435,
      "NATO": 8436,
      "anybody": 8437,
      "conspiracy": 8438,
      "swing": 8439,
      "maps": 8440,
      "Revolution": 8441,
      "jur": 8442,
      "Iraqi": 8443,
      "virus": 8444,
      "nan": 8445,
      "diversity": 8446,
      "Ker": 8447,
      "ignore": 8448,
      "Sab": 8449,
      "olen": 8450,
      "Bang": 8451,
      "preser": 8452,
      "handling": 8453,
      "publication": 8454,
      "ounced": 8455,
      "secre": 8456,
      "seed": 8457,
      "Anim": 8458,
      "Chap": 8459,
      "tracking": 8460,
      "azz": 8461,
      "iversary": 8462,
      "spiritual": 8463,
      "Vegas": 8464,
      "Tha": 8465,
      "EST": 8466,
      "Ni": 8467,
      "decent": 8468,
      "Credit": 8469,
      "........": 8470,
      "Lev": 8471,
      "GT": 8472,
      "dies": 8473,
      "Justin": 8474,
      "Marvel": 8475,
      "rural": 8476,
      "tu": 8477,
      "icious": 8478,
      "Kennedy": 8479,
      "inois": 8480,
      "OD": 8481,
      "civilians": 8482,
      "touchdown": 8483,
      "fallen": 8484,
      "attacking": 8485,
      "expanded": 8486,
      "unior": 8487,
      "HA": 8488,
      "recommended": 8489,
      "stake": 8490,
      "Chel": 8491,
      "bone": 8492,
      "neighbour": 8493,
      "Stor": 8494,
      "extract": 8495,
      "Sel": 8496,
      "gains": 8497,
      "lah": 8498,
      "Jac": 8499,
      "authentic": 8500,
      "reader": 8501,
      "handful": 8502,
      "gathered": 8503,
      "orn": 8504,
      "missile": 8505,
      "tasks": 8506,
      "een": 8507,
      "iler": 8508,
      "improvement": 8509,
      "uma": 8510,
      "remarks": 8511,
      "affairs": 8512,
      "ffect": 8513,
      "enormous": 8514,
      "discussions": 8515,
      "brothers": 8516,
      "Mountain": 8517,
      "migration": 8518,
      "medicine": 8519,
      "\")": 8520,
      "steel": 8521,
      "Intel": 8522,
      "embarrass": 8523,
      "ambit": 8524,
      "dance": 8525,
      "astron": 8526,
      "samples": 8527,
      "Da": 8528,
      "Atlantic": 8529,
      "ikes": 8530,
      "humanity": 8531,
      "Psy": 8532,
      "wages": 8533,
      "panic": 8534,
      "activist": 8535,
      "Illinois": 8536,
      "Sor": 8537,
      "thir": 8538,
      "vals": 8539,
      "AFP": 8540,
      "actively": 8541,
      "Som": 8542,
      "beth": 8543,
      "attempting": 8544,
      "visitors": 8545,
      "boom": 8546,
      "dump": 8547,
      "angel": 8548,
      "Final": 8549,
      "yellow": 8550,
      "UL": 8551,
      "clothes": 8552,
      "Photos": 8553,
      "Ak": 8554,
      "dramatic": 8555,
      "testim": 8556,
      "forest": 8557,
      "entre": 8558,
      "amid": 8559,
      "echo": 8560,
      "purchased": 8561,
      "oty": 8562,
      "suspected": 8563,
      "oft": 8564,
      "wrest": 8565,
      "Football": 8566,
      "eration": 8567,
      "ingred": 8568,
      "Mexican": 8569,
      "console": 8570,
      "toxic": 8571,
      "Saf": 8572,
      "Clark": 8573,
      "titled": 8574,
      "platforms": 8575,
      "rie": 8576,
      ".-": 8577,
      "91": 8578,
      "itchen": 8579,
      "waves": 8580,
      "eties": 8581,
      "shoulder": 8582,
      "asty": 8583,
      "morrow": 8584,
      "tweeted": 8585,
      "riot": 8586,
      "bacter": 8587,
      "mary": 8588,
      "CON": 8589,
      "Being": 8590,
      "lowest": 8591,
      "stayed": 8592,
      "withdraw": 8593,
      "Support": 8594,
      "symptoms": 8595,
      "addressed": 8596,
      "choos": 8597,
      "virtually": 8598,
      "sons": 8599,
      "seemingly": 8600,
      "Knight": 8601,
      "eing": 8602,
      "bec": 8603,
      "bureau": 8604,
      "Sarah": 8605,
      "silver": 8606,
      "Magic": 8607,
      "foss": 8608,
      "Sean": 8609,
      "chapter": 8610,
      "domain": 8611,
      "suspended": 8612,
      "Andre": 8613,
      "resign": 8614,
      "onso": 8615,
      "nest": 8616,
      "Stadium": 8617,
      "Pres": 8618,
      "Denver": 8619,
      "Mun": 8620,
      "alloc": 8621,
      "absence": 8622,
      "Unlike": 8623,
      "Mrs": 8624,
      "Similar": 8625,
      "shore": 8626,
      "tie": 8627,
      "assign": 8628,
      "checks": 8629,
      "horror": 8630,
      "threw": 8631,
      "Ga": 8632,
      "\".[": 8633,
      "Would": 8634,
      "providers": 8635,
      "persist": 8636,
      "efficiency": 8637,
      "Okla": 8638,
      "Iron": 8639,
      "width": 8640,
      "suits": 8641,
      "Below": 8642,
      "tomorrow": 8643,
      "involves": 8644,
      "joke": 8645,
      "offices": 8646,
      "Vo": 8647,
      "ballot": 8648,
      "Utah": 8649,
      "careful": 8650,
      "RT": 8651,
      "coaches": 8652,
      "tea": 8653,
      "opinions": 8654,
      "sheet": 8655,
      "loans": 8656,
      "rett": 8657,
      "waters": 8658,
      "depends": 8659,
      "Roberts": 8660,
      "divided": 8661,
      "protocol": 8662,
      "abol": 8663,
      "loaded": 8664,
      "colors": 8665,
      "correctly": 8666,
      "Indiana": 8667,
      "salary": 8668,
      "paint": 8669,
      "advocates": 8670,
      "Hospital": 8671,
      "Rather": 8672,
      "bird": 8673,
      "export": 8674,
      "inquir": 8675,
      "exit": 8676,
      "Front": 8677,
      "Left": 8678,
      "Table": 8679,
      "hint": 8680,
      "Bloom": 8681,
      "cular": 8682,
      "Jonathan": 8683,
      "settled": 8684,
      "premium": 8685,
      "Tra": 8686,
      "burden": 8687,
      "ifies": 8688,
      "aret": 8689,
      "fantastic": 8690,
      "bread": 8691,
      "Total": 8692,
      "ria": 8693,
      "attitude": 8694,
      "speaks": 8695,
      "brown": 8696,
      "Wa": 8697,
      "musical": 8698,
      "Friend": 8699,
      "ee": 8700,
      "Pos": 8701,
      "Eag": 8702,
      "voter": 8703,
      "painting": 8704,
      "upset": 8705,
      "helpful": 8706,
      "Field": 8707,
      "IO": 8708,
      "intendo": 8709,
      "neys": 8710,
      "incidents": 8711,
      "Obam": 8712,
      "flix": 8713,
      "VA": 8714,
      "noting": 8715,
      "distributed": 8716,
      "EP": 8717,
      "Cow": 8718,
      "personality": 8719,
      "cler": 8720,
      "1992": 8721,
      "cream": 8722,
      "hoods": 8723,
      "depression": 8724,
      "jer": 8725,
      "comedy": 8726,
      "Corpor": 8727,
      "Liverpool": 8728,
      "Technology": 8729,
      "Lau": 8730,
      "Ontar": 8731,
      "icate": 8732,
      "Ruby": 8733,
      "geon": 8734,
      "bub": 8735,
      "Quest": 8736,
      "Cer": 8737,
      "dust": 8738,
      "Alexander": 8739,
      "encouraged": 8740,
      "rhetor": 8741,
      "protecting": 8742,
      "naturally": 8743,
      "??": 8744,
      "innovation": 8745,
      "Moham": 8746,
      "drama": 8747,
      "xit": 8748,
      "soil": 8749,
      "Pur": 8750,
      "absor": 8751,
      "Custom": 8752,
      "spots": 8753,
      "FI": 8754,
      "3rd": 8755,
      "2020": 8756,
      "ifications": 8757,
      "Children": 8758,
      "Article": 8759,
      "defeated": 8760,
      "Nintendo": 8761,
      "Treas": 8762,
      "Silver": 8763,
      "twenty": 8764,
      "holes": 8765,
      "skept": 8766,
      "replacement": 8767,
      "(“": 8768,
      "commonly": 8769,
      "racism": 8770,
      "Brow": 8771,
      "elev": 8772,
      "Sweden": 8773,
      "pling": 8774,
      "compass": 8775,
      "aug": 8776,
      "Download": 8777,
      "iated": 8778,
      "prev": 8779,
      "cust": 8780,
      "aron": 8781,
      "ranks": 8782,
      "Speaking": 8783,
      "tape": 8784,
      "Qa": 8785,
      "Leon": 8786,
      "functional": 8787,
      "oon": 8788,
      "birds": 8789,
      "homeless": 8790,
      "legacy": 8791,
      "Indust": 8792,
      "scholar": 8793,
      "MAN": 8794,
      "visiting": 8795,
      "improving": 8796,
      "protein": 8797,
      "subsequent": 8798,
      "phrase": 8799,
      "fears": 8800,
      "innocent": 8801,
      "rome": 8802,
      "guitar": 8803,
      "twe": 8804,
      "Portland": 8805,
      "!)": 8806,
      "Should": 8807,
      "Warren": 8808,
      "referendum": 8809,
      "chron": 8810,
      "Ox": 8811,
      "revel": 8812,
      "eco": 8813,
      "\">": 8814,
      "Early": 8815,
      "Netflix": 8816,
      "abandoned": 8817,
      "1000": 8818,
      "judges": 8819,
      "Az": 8820,
      "dub": 8821,
      "annon": 8822,
      "upgrade": 8823,
      "appreciate": 8824,
      "measured": 8825,
      "Map": 8826,
      "assessment": 8827,
      "guards": 8828,
      "stolen": 8829,
      "1993": 8830,
      "hyper": 8831,
      "bless": 8832,
      "diverse": 8833,
      "quer": 8834,
      "grat": 8835,
      "Buff": 8836,
      "mathem": 8837,
      "Der": 8838,
      "printed": 8839,
      "studied": 8840,
      "gig": 8841,
      "Empire": 8842,
      "CB": 8843,
      "lux": 8844,
      "Mit": 8845,
      "igent": 8846,
      "Priv": 8847,
      "Everything": 8848,
      "shadow": 8849,
      "wich": 8850,
      "forecast": 8851,
      "Liberal": 8852,
      "Tes": 8853,
      "icket": 8854,
      "eligible": 8855,
      "mers": 8856,
      "ijing": 8857,
      "monitoring": 8858,
      "acquired": 8859,
      "membership": 8860,
      "Ontario": 8861,
      "yl": 8862,
      "unions": 8863,
      "ratio": 8864,
      "icking": 8865,
      "tum": 8866,
      "accessible": 8867,
      "itage": 8868,
      "rescue": 8869,
      "amb": 8870,
      "pron": 8871,
      "itionally": 8872,
      "avell": 8873,
      "pig": 8874,
      "encry": 8875,
      "equality": 8876,
      "una": 8877,
      "ramp": 8878,
      "accomplish": 8879,
      "Oklahom": 8880,
      "lunch": 8881,
      "margin": 8882,
      "Things": 8883,
      "desc": 8884,
      "Nothing": 8885,
      "pound": 8886,
      "answered": 8887,
      "hu": 8888,
      "MD": 8889,
      "permit": 8890,
      "receiver": 8891,
      "Chelsea": 8892,
      "void": 8893,
      "deficit": 8894,
      "mistakes": 8895,
      "blank": 8896,
      "provin": 8897,
      "persons": 8898,
      "Beijing": 8899,
      "itary": 8900,
      "JP": 8901,
      "Bridge": 8902,
      "FOR": 8903,
      "Remember": 8904,
      "revers": 8905,
      "smoking": 8906,
      "Kong": 8907,
      "literature": 8908,
      "burning": 8909,
      "balls": 8910,
      "universal": 8911,
      "Gary": 8912,
      "bust": 8913,
      "1970s": 8914,
      "artific": 8915,
      "fits": 8916,
      "responses": 8917,
      "Gil": 8918,
      "shopping": 8919,
      "Dutch": 8920,
      "submit": 8921,
      "ignored": 8922,
      "striking": 8923,
      "passengers": 8924,
      "recon": 8925,
      "Anna": 8926,
      "copies": 8927,
      "owns": 8928,
      "bassador": 8929,
      "acare": 8930,
      "nomination": 8931,
      "MC": 8932,
      "Governor": 8933,
      "cow": 8934,
      "Steven": 8935,
      "Online": 8936,
      "museum": 8937,
      "transit": 8938,
      "cort": 8939,
      "appearances": 8940,
      "tourist": 8941,
      "letting": 8942,
      "tons": 8943,
      "oblig": 8944,
      "jok": 8945,
      "Much": 8946,
      "Assem": 8947,
      "Galaxy": 8948,
      "Access": 8949,
      "Graham": 8950,
      "memo": 8951,
      "adap": 8952,
      "haust": 8953,
      "Mult": 8954,
      "Harvard": 8955,
      "Hamilton": 8956,
      "Had": 8957,
      "Sound": 8958,
      "bold": 8959,
      "festival": 8960,
      "rear": 8961,
      "politically": 8962,
      "hem": 8963,
      "Edward": 8964,
      "inction": 8965,
      "Hz": 8966,
      "beauty": 8967,
      "eding": 8968,
      "soccer": 8969,
      "scientist": 8970,
      "Batman": 8971,
      "obs": 8972,
      "Si": 8973,
      "ulus": 8974,
      "frequency": 8975,
      "clude": 8976,
      "Maryland": 8977,
      "blocked": 8978,
      "hockey": 8979,
      "firing": 8980,
      "hosp": 8981,
      "travell": 8982,
      "Oklahoma": 8983,
      "html": 8984,
      "len": 8985,
      "secondary": 8986,
      "mock": 8987,
      "logo": 8988,
      "Obamacare": 8989,
      "hook": 8990,
      "Brexit": 8991,
      "affordable": 8992,
      "Award": 8993,
      "Carl": 8994,
      "Reddit": 8995,
      "Mobile": 8996,
      "populations": 8997,
      "Jere": 8998,
      "gif": 8999,
      "insisted": 9000,
      "stages": 9001,
      "EX": 9002,
      "********": 9003,
      "sequence": 9004,
      "riding": 9005,
      "okay": 9006,
      "semi": 9007,
      "acid": 9008,
      "vit": 9009,
      "Tax": 9010,
      "Bruce": 9011,
      "popularity": 9012,
      "kit": 9013,
      "weekly": 9014,
      "concrete": 9015,
      "Carter": 9016,
      "uted": 9017,
      "cription": 9018,
      "proposals": 9019,
      "criticized": 9020,
      "manifest": 9021,
      "Eliza": 9022,
      "Model": 9023,
      "targeting": 9024,
      "kilomet": 9025,
      "cuss": 9026,
      "Therefore": 9027,
      "haul": 9028,
      "arrive": 9029,
      "tips": 9030,
      "supplies": 9031,
      "berry": 9032,
      "Nev": 9033,
      "mans": 9034,
      "shops": 9035,
      "Bureau": 9036,
      "hire": 9037,
      "eign": 9038,
      "ials": 9039,
      "pton": 9040,
      "fate": 9041,
      "oxy": 9042,
      "introduce": 9043,
      "Could": 9044,
      "replied": 9045,
      "mechanism": 9046,
      "pocket": 9047,
      "bors": 9048,
      "anne": 9049,
      "tical": 9050,
      "Philipp": 9051,
      "heim": 9052,
      "sections": 9053,
      "Ka": 9054,
      "BR": 9055,
      "Dog": 9056,
      "Syd": 9057,
      "Uber": 9058,
      "circle": 9059,
      "Local": 9060,
      "shi": 9061,
      "vet": 9062,
      "wars": 9063,
      "hoped": 9064,
      "requested": 9065,
      "Simon": 9066,
      "courage": 9067,
      "Shad": 9068,
      "centers": 9069,
      "predicted": 9070,
      "iley": 9071,
      "contrad": 9072,
      "gross": 9073,
      "mini": 9074,
      "pup": 9075,
      "pressing": 9076,
      "Mach": 9077,
      "yield": 9078,
      "loose": 9079,
      "abroad": 9080,
      "isa": 9081,
      "lane": 9082,
      "static": 9083,
      "Trade": 9084,
      "Len": 9085,
      "Official": 9086,
      "Belg": 9087,
      "entitled": 9088,
      "landscape": 9089,
      "ala": 9090,
      "Ark": 9091,
      "Vill": 9092,
      "Morris": 9093,
      "programme": 9094,
      "''": 9095,
      "jan": 9096,
      "sians": 9097,
      "Represent": 9098,
      "usalem": 9099,
      "Murray": 9100,
      "dismissed": 9101,
      "brilli": 9102,
      "Player": 9103,
      "retirement": 9104,
      "idi": 9105,
      "urged": 9106,
      "quoted": 9107,
      "pics": 9108,
      "MI": 9109,
      "releases": 9110,
      "tens": 9111,
      "Olympic": 9112,
      "Consider": 9113,
      "VP": 9114,
      "Store": 9115,
      "Bag": 9116,
      "survival": 9117,
      "Block": 9118,
      "Rs": 9119,
      "Budd": 9120,
      "Captain": 9121,
      "heroes": 9122,
      "umes": 9123,
      "Jerusalem": 9124,
      "atre": 9125,
      "Until": 9126,
      "Tai": 9127,
      "whenever": 9128,
      "Pa": 9129,
      "pill": 9130,
      "Beng": 9131,
      "senator": 9132,
      "Capital": 9133,
      "KE": 9134,
      "modu": 9135,
      "monthly": 9136,
      "drove": 9137,
      "compare": 9138,
      "violation": 9139,
      "wider": 9140,
      "banking": 9141,
      "voices": 9142,
      "XX": 9143,
      "presum": 9144,
      "exhaust": 9145,
      "enix": 9146,
      "Sav": 9147,
      "Ultim": 9148,
      "icop": 9149,
      "irts": 9150,
      "pointing": 9151,
      "presidency": 9152,
      "UP": 9153,
      "chest": 9154,
      "Vice": 9155,
      "confront": 9156,
      "Scottish": 9157,
      "veterans": 9158,
      "BL": 9159,
      "Buy": 9160,
      "1991": 9161,
      "Bible": 9162,
      "recall": 9163,
      "assigned": 9164,
      "Qaeda": 9165,
      "Rest": 9166,
      "genes": 9167,
      "module": 9168,
      "outrage": 9169,
      "Tennes": 9170,
      "Kick": 9171,
      "Editor": 9172,
      "Morgan": 9173,
      "organic": 9174,
      "harassment": 9175,
      "archy": 9176,
      "Marx": 9177,
      "ahu": 9178,
      "documentary": 9179,
      "logical": 9180,
      "streaming": 9181,
      "satellite": 9182,
      "Rac": 9183,
      "entrepre": 9184,
      "windows": 9185,
      "twist": 9186,
      "Lt": 9187,
      "shame": 9188,
      "focusing": 9189,
      "Fred": 9190,
      "ultane": 9191,
      "Dur": 9192,
      "ika": 9193,
      "thorough": 9194,
      "spokeswoman": 9195,
      "arbit": 9196,
      "unexpected": 9197,
      "Rap": 9198,
      "objective": 9199,
      "autonom": 9200,
      "remarkable": 9201,
      "pursue": 9202,
      "reverse": 9203,
      "Berlin": 9204,
      "restaurants": 9205,
      "Bri": 9206,
      "wealthy": 9207,
      "architect": 9208,
      "ouri": 9209,
      "Level": 9210,
      "Hong": 9211,
      "maintained": 9212,
      "aus": 9213,
      "lib": 9214,
      "replic": 9215,
      "Scient": 9216,
      "1950": 9217,
      "uplo": 9218,
      "Crime": 9219,
      "qualified": 9220,
      "bonus": 9221,
      "acking": 9222,
      "ctr": 9223,
      "anxiety": 9224,
      "questioned": 9225,
      "dot": 9226,
      "Michel": 9227,
      "resem": 9228,
      "stability": 9229,
      "submitted": 9230,
      "channels": 9231,
      "alarm": 9232,
      "Moreover": 9233,
      "prisoners": 9234,
      "landing": 9235,
      "110": 9236,
      "ati": 9237,
      "disorder": 9238,
      "rations": 9239,
      "annel": 9240,
      "errors": 9241,
      "acre": 9242,
      "tenance": 9243,
      "overseas": 9244,
      "accus": 9245,
      "Wo": 9246,
      "ranking": 9247,
      "inches": 9248,
      "bian": 9249,
      "approached": 9250,
      "Spec": 9251,
      "guarantee": 9252,
      "salt": 9253,
      "hosted": 9254,
      "stepped": 9255,
      "dying": 9256,
      "pipeline": 9257,
      "Produ": 9258,
      "athletes": 9259,
      "Others": 9260,
      "beating": 9261,
      "tactics": 9262,
      "gaining": 9263,
      "experiments": 9264,
      "Abu": 9265,
      "sustainable": 9266,
      "Leader": 9267,
      "savings": 9268,
      "crush": 9269,
      "Vietnam": 9270,
      "enez": 9271,
      "ICE": 9272,
      "cope": 9273,
      "butter": 9274,
      "demanding": 9275,
      "tower": 9276,
      "testimony": 9277,
      "Oakland": 9278,
      "Dick": 9279,
      "designs": 9280,
      "producers": 9281,
      "hatt": 9282,
      "argues": 9283,
      "DV": 9284,
      "odds": 9285,
      "relax": 9286,
      "inser": 9287,
      "lat": 9288,
      "faction": 9289,
      "celebrate": 9290,
      "Pier": 9291,
      "knee": 9292,
      "deny": 9293,
      "Recent": 9294,
      "citation": 9295,
      "Digital": 9296,
      "generations": 9297,
      "vig": 9298,
      "trillion": 9299,
      "Cro": 9300,
      "Ross": 9301,
      "kers": 9302,
      "fault": 9303,
      "surely": 9304,
      "stron": 9305,
      "cam": 9306,
      "Case": 9307,
      "preparing": 9308,
      "anniversary": 9309,
      "aga": 9310,
      "Publ": 9311,
      "silence": 9312,
      "household": 9313,
      "Gulf": 9314,
      "Sydney": 9315,
      "tables": 9316,
      "ashes": 9317,
      "aired": 9318,
      "Charlie": 9319,
      "Yemen": 9320,
      "civilian": 9321,
      "SN": 9322,
      "sized": 9323,
      "cm": 9324,
      "mortg": 9325,
      "19th": 9326,
      "phenomenon": 9327,
      "dating": 9328,
      "picks": 9329,
      "ologists": 9330,
      "Dragon": 9331,
      "entity": 9332,
      "meal": 9333,
      "differently": 9334,
      "picking": 9335,
      "ashing": 9336,
      "broader": 9337,
      "boxes": 9338,
      "arguing": 9339,
      "propaganda": 9340,
      "healthcare": 9341,
      "reveals": 9342,
      "pson": 9343,
      "Trust": 9344,
      "jun": 9345,
      "reforms": 9346,
      "categories": 9347,
      "ratings": 9348,
      "escal": 9349,
      "rolls": 9350,
      "nett": 9351,
      "opens": 9352,
      "sher": 9353,
      "iro": 9354,
      "deadly": 9355,
      "Burn": 9356,
      "Assembly": 9357,
      "persu": 9358,
      "stored": 9359,
      "realistic": 9360,
      "sorts": 9361,
      "Instag": 9362,
      "Third": 9363,
      "consent": 9364,
      "legislative": 9365,
      "assass": 9366,
      "Hub": 9367,
      "entr": 9368,
      "aire": 9369,
      "torture": 9370,
      "eu": 9371,
      "dominated": 9372,
      "Fran": 9373,
      "Nazi": 9374,
      "calm": 9375,
      "puzz": 9376,
      "fortunate": 9377,
      "imposed": 9378,
      "Prov": 9379,
      "colate": 9380,
      "prosecutors": 9381,
      "din": 9382,
      "{\\": 9383,
      "Arsen": 9384,
      "distingu": 9385,
      "clinical": 9386,
      "repeat": 9387,
      "Jen": 9388,
      "Cloud": 9389,
      "Grant": 9390,
      "tremend": 9391,
      "expanding": 9392,
      "gathering": 9393,
      "promoting": 9394,
      "trait": 9395,
      "hopefully": 9396,
      "Hero": 9397,
      "eters": 9398,
      "Jenn": 9399,
      "Tennessee": 9400,
      "Instagram": 9401,
      "ique": 9402,
      "EPA": 9403,
      "rounds": 9404,
      "Mail": 9405,
      "vous": 9406,
      "chicken": 9407,
      "atar": 9408,
      "cure": 9409,
      "athers": 9410,
      "emerging": 9411,
      "TER": 9412,
      "Thompson": 9413,
      "awarded": 9414,
      "Elizabeth": 9415,
      "Hart": 9416,
      "cart": 9417,
      "shipping": 9418,
      "tha": 9419,
      "enthusi": 9420,
      "borders": 9421,
      "tonight": 9422,
      "smartphone": 9423,
      "precisely": 9424,
      "cooperation": 9425,
      "staying": 9426,
      "citing": 9427,
      "analyst": 9428,
      "execution": 9429,
      "demonstrate": 9430,
      "Na": 9431,
      "ems": 9432,
      "orious": 9433,
      "stere": 9434,
      "agers": 9435,
      "Sud": 9436,
      "Hell": 9437,
      "childhood": 9438,
      "Change": 9439,
      "magnet": 9440,
      "consensus": 9441,
      "newsletter": 9442,
      "difficulty": 9443,
      "physically": 9444,
      "procedure": 9445,
      "asting": 9446,
      "Order": 9447,
      "whereas": 9448,
      "damaged": 9449,
      "importantly": 9450,
      "tube": 9451,
      "bias": 9452,
      "arc": 9453,
      "transaction": 9454,
      "TON": 9455,
      "Hawai": 9456,
      "deserve": 9457,
      "highlights": 9458,
      "Nic": 9459,
      "izer": 9460,
      "simultane": 9461,
      "occupied": 9462,
      "HO": 9463,
      "Gordon": 9464,
      "oster": 9465,
      "meaningful": 9466,
      "drives": 9467,
      "fers": 9468,
      "assumed": 9469,
      "SL": 9470,
      "greatly": 9471,
      "gut": 9472,
      "struggled": 9473,
      "olds": 9474,
      "insu": 9475,
      "Executive": 9476,
      "Ya": 9477,
      "nie": 9478,
      "Pers": 9479,
      "isons": 9480,
      "bother": 9481,
      "Andy": 9482,
      "oid": 9483,
      "rookie": 9484,
      "Management": 9485,
      "superior": 9486,
      "worn": 9487,
      "Wol": 9488,
      "bis": 9489,
      "exempt": 9490,
      "MLS": 9491,
      "Comey": 9492,
      "Cas": 9493,
      "planes": 9494,
      "interpre": 9495,
      "managing": 9496,
      "Alan": 9497,
      "jet": 9498,
      "poison": 9499,
      "dialogue": 9500,
      "ira": 9501,
      "aco": 9502,
      "isk": 9503,
      "speaker": 9504,
      "cheese": 9505,
      "arity": 9506,
      "smile": 9507,
      "Pentagon": 9508,
      "rows": 9509,
      "clothing": 9510,
      "strategies": 9511,
      "GDP": 9512,
      "drone": 9513,
      "escap": 9514,
      "recipe": 9515,
      "leans": 9516,
      "nin": 9517,
      "anner": 9518,
      "ceremony": 9519,
      "eases": 9520,
      "Based": 9521,
      "trials": 9522,
      "aer": 9523,
      "uth": 9524,
      "Arm": 9525,
      "spectrum": 9526,
      "divor": 9527,
      "PL": 9528,
      "moderate": 9529,
      "Wi": 9530,
      "Flo": 9531,
      "indicates": 9532,
      "AB": 9533,
      "wanting": 9534,
      "Wales": 9535,
      "centuries": 9536,
      "executives": 9537,
      "facilit": 9538,
      "1989": 9539,
      "uten": 9540,
      "addresses": 9541,
      "fined": 9542,
      "economics": 9543,
      "backing": 9544,
      "Libya": 9545,
      "gene": 9546,
      "perceived": 9547,
      "muscle": 9548,
      "Text": 9549,
      "donations": 9550,
      "Move": 9551,
      "dominant": 9552,
      "utility": 9553,
      "capitalism": 9554,
      "competing": 9555,
      "therapy": 9556,
      "investments": 9557,
      "passage": 9558,
      "thood": 9559,
      "checked": 9560,
      "agreements": 9561,
      "grave": 9562,
      "labour": 9563,
      "Auto": 9564,
      "substance": 9565,
      "moval": 9566,
      "Cra": 9567,
      "attractive": 9568,
      "stamp": 9569,
      "posting": 9570,
      "Dor": 9571,
      "Sess": 9572,
      "Bren": 9573,
      "Economic": 9574,
      "contacted": 9575,
      "enhance": 9576,
      "Aaron": 9577,
      "Ti": 9578,
      "resort": 9579,
      "Form": 9580,
      "rab": 9581,
      "mood": 9582,
      "igate": 9583,
      "stops": 9584,
      "outer": 9585,
      "fossil": 9586,
      "endorse": 9587,
      "tired": 9588,
      "Sex": 9589,
      "bun": 9590,
      "racing": 9591,
      "precedented": 9592,
      "ifer": 9593,
      "Furthermore": 9594,
      "sweep": 9595,
      "constr": 9596,
      "Hon": 9597,
      "dispute": 9598,
      "Future": 9599,
      "aler": 9600,
      "variable": 9601,
      "tempor": 9602,
      "Cooper": 9603,
      "publishing": 9604,
      "Russell": 9605,
      "ministry": 9606,
      "Channel": 9607,
      "enabled": 9608,
      "js": 9609,
      "suspects": 9610,
      "Clear": 9611,
      "guidelines": 9612,
      "regulatory": 9613,
      "playoffs": 9614,
      "ila": 9615,
      "Aren": 9616,
      "Affairs": 9617,
      "portation": 9618,
      "wounded": 9619,
      "packed": 9620,
      "Ther": 9621,
      "sovereign": 9622,
      "openly": 9623,
      "isters": 9624,
      "Yan": 9625,
      "Beck": 9626,
      "Fant": 9627,
      "setup": 9628,
      "Date": 9629,
      "apolis": 9630,
      "signature": 9631,
      "eager": 9632,
      "laptop": 9633,
      "kg": 9634,
      "ulating": 9635,
      "searching": 9636,
      "grapher": 9637,
      "ucks": 9638,
      "memor": 9639,
      "genre": 9640,
      "omed": 9641,
      "Pitts": 9642,
      "Put": 9643,
      "educational": 9644,
      "Expl": 9645,
      "Nel": 9646,
      "charity": 9647,
      "Les": 9648,
      "migrants": 9649,
      "Standard": 9650,
      "battles": 9651,
      "***": 9652,
      "}}": 9653,
      "Won": 9654,
      "Tel": 9655,
      "Bos": 9656,
      "Cole": 9657,
      "cured": 9658,
      "surviv": 9659,
      "ression": 9660,
      "Doctor": 9661,
      "integration": 9662,
      "hunt": 9663,
      "aa": 9664,
      "custody": 9665,
      "sixth": 9666,
      "coaching": 9667,
      "Harper": 9668,
[...]
